// Copyright 2024 Zack Qattan @ Brilliant Sole. All Rights Reserved

#include "BS_TfliteModel.h"
#include "Logging/StructuredLog.h"

DEFINE_LOG_CATEGORY(LogBS_TfliteModel);

const TArray<uint8> UBS_TfliteModel::TfliteModel = {
    0x1c, 0x0, 0x0, 0x0, 0x54, 0x46, 0x4c, 0x33, 0x14, 0x0, 0x20, 0x0, 0x4, 0x0, 0x8, 0x0, 0xc, 0x0, 0x10, 0x0, 0x14, 0x0, 0x0, 0x0, 0x18, 0x0, 0x1c, 0x0, 0x14, 0x0, 0x0, 0x0, 0x3, 0x0, 0x0, 0x0, 0x18, 0x0, 0x0, 0x0, 0x20, 0x0, 0x0, 0x0, 0xa4, 0x0, 0x0, 0x0, 0x20, 0x0, 0x0, 0x0, 0x4c, 0x0, 0x0, 0x0, 0x44, 0x0, 0x0, 0x0, 0x2, 0x0, 0x0, 0x0, 0xc0, 0x2, 0x0, 0x0, 0x54, 0x1, 0x0, 0x0, 0x1, 0x0, 0x0, 0x0, 0xa8, 0x0, 0x0, 0x0, 0xa, 0x0, 0x0, 0x0, 0xb0, 0x2d, 0x0, 0x0, 0xac, 0x2d, 0x0, 0x0, 0xb8, 0x2c, 0x0, 0x0, 0xfc, 0x2b, 0x0, 0x0, 0xa0, 0x4, 0x0, 0x0, 0x44, 0x3, 0x0, 0x0, 0x98, 0x2d, 0x0, 0x0, 0x94, 0x2d, 0x0, 0x0, 0x90, 0x2d, 0x0, 0x0, 0x3c, 0x0, 0x0, 0x0, 0x0, 0x0, 0x0, 0x0, 0x1, 0x0, 0x0, 0x0, 0xc, 0x0, 0x0, 0x0, 0x8, 0x0, 0xc, 0x0, 0x4, 0x0, 0x8, 0x0, 0x8, 0x0, 0x0, 0x0, 0x8, 0x0, 0x0, 0x0, 0x9, 0x0, 0x0, 0x0, 0x13, 0x0, 0x0, 0x0, 0x6d, 0x69, 0x6e, 0x5f, 0x72, 0x75, 0x6e, 0x74, 0x69, 0x6d, 0x65, 0x5f, 0x76, 0x65, 0x72, 0x73, 0x69, 0x6f, 0x6e, 0x0, 0xa6, 0xd3, 0xff, 0xff, 0x4, 0x0, 0x0, 0x0, 0x10, 0x0, 0x0, 0x0, 0x31, 0x2e, 0x35, 0x2e, 0x30, 0x0, 0x0, 0x0, 0x0, 0x0, 0x0, 0x0, 0x0, 0x0, 0x0, 0x0, 0xf, 0x0, 0x0, 0x0, 0x4d, 0x4c, 0x49, 0x52, 0x20, 0x43, 0x6f, 0x6e, 0x76, 0x65, 0x72, 0x74, 0x65, 0x64, 0x2e, 0x0, 0x0, 0x0, 0xe, 0x0, 0x18, 0x0, 0x4, 0x0, 0x8, 0x0, 0xc, 0x0, 0x10, 0x0, 0x14, 0x0, 0xe, 0x0, 0x0, 0x0, 0x14, 0x0, 0x0, 0x0, 0x34, 0x0, 0x0, 0x0, 0x38, 0x0, 0x0, 0x0, 0x3c, 0x0, 0x0, 0x0, 0x48, 0x0, 0x0, 0x0, 0x8, 0x0, 0x0, 0x0, 0xa4, 0x2c, 0x0, 0x0, 0x2c, 0x2c, 0x0, 0x0, 0x90, 0x2b, 0x0, 0x0, 0xf4, 0x2a, 0x0, 0x0, 0x98, 0x3, 0x0, 0x0, 0xec, 0x1, 0x0, 0x0, 0x4, 0x1, 0x0, 0x0, 0x7c, 0x0, 0x0, 0x0, 0x1, 0x0, 0x0, 0x0, 0x0, 0x0, 0x0, 0x0, 0x1, 0x0, 0x0, 0x0, 0x7, 0x0, 0x0, 0x0, 0x3, 0x0, 0x0, 0x0, 0x74, 0x1, 0x0, 0x0, 0xb4, 0x0, 0x0, 0x0, 0x1c, 0x0, 0x0, 0x0, 0x4, 0x0, 0x0, 0x0, 0x6d, 0x61, 0x69, 0x6e, 0x0, 0x0, 0xe, 0x0, 0x18, 0x0, 0x8, 0x0, 0xc, 0x0, 0x10, 0x0, 0x7, 0x0, 0x14, 0x0, 0xe, 0x0, 0x0, 0x0, 0x0, 0x0, 0x0, 0x9, 0x1, 0x0, 0x0, 0x0, 0x1c, 0x0, 0x0, 0x0, 0x10, 0x0, 0x0, 0x0, 0x4, 0x0, 0x0, 0x0, 0x72, 0xd4, 0xff, 0xff, 0x0, 0x0, 0x80, 0x3f, 0x1, 0x0, 0x0, 0x0, 0x7, 0x0, 0x0, 0x0, 0x1, 0x0, 0x0, 0x0, 0x6, 0x0, 0x0, 0x0, 0xa4, 0xfe, 0xff, 0xff, 0x19, 0x0, 0x0, 0x0, 0x0, 0x0, 0x0, 0x19, 0x1, 0x0, 0x0, 0x0, 0x8, 0xd4, 0xff, 0xff, 0x14, 0x0, 0x0, 0x0, 0x8, 0x0, 0x0, 0x0, 0x24, 0x0, 0x0, 0x0, 0x30, 0x0, 0x0, 0x0, 0x10, 0x0, 0x0, 0x0, 0x2, 0x0, 0x0, 0x0, 0x1, 0x0, 0x0, 0x0, 0x4, 0x0, 0x0, 0x0, 0x2, 0x0, 0x0, 0x0, 0xff, 0xff, 0xff, 0xff, 0x4, 0x0, 0x0, 0x0, 0x8, 0x0, 0x0, 0x0, 0x49, 0x64, 0x65, 0x6e, 0x74, 0x69, 0x74, 0x79, 0x0, 0x0, 0x0, 0x0, 0xe4, 0xd4, 0xff, 0xff, 0x0, 0x0, 0xe, 0x0, 0x14, 0x0, 0x0, 0x0, 0x8, 0x0, 0xc, 0x0, 0x7, 0x0, 0x10, 0x0, 0xe, 0x0, 0x0, 0x0, 0x0, 0x0, 0x0, 0x8, 0x18, 0x0, 0x0, 0x0, 0xc, 0x0, 0x0, 0x0, 0x4, 0x0, 0x0, 0x0, 0x10, 0xd4, 0xff, 0xff, 0x1, 0x0, 0x0, 0x0, 0x6, 0x0, 0x0, 0x0, 0x3, 0x0, 0x0, 0x0, 0x5, 0x0, 0x0, 0x0, 0x4, 0x0, 0x0, 0x0, 0x1, 0x0, 0x0, 0x0, 0x8c, 0xd4, 0xff, 0xff, 0x14, 0x0, 0x0, 0x0, 0x7, 0x0, 0x0, 0x0, 0x24, 0x0, 0x0, 0x0, 0x68, 0x0, 0x0, 0x0, 0x10, 0x0, 0x0, 0x0, 0x2, 0x0, 0x0, 0x0, 0x1, 0x0, 0x0, 0x0, 0x4, 0x0, 0x0, 0x0, 0x2, 0x0, 0x0, 0x0, 0xff, 0xff, 0xff, 0xff, 0x4, 0x0, 0x0, 0x0, 0x42, 0x0, 0x0, 0x0, 0x73, 0x65, 0x71, 0x75, 0x65, 0x6e, 0x74, 0x69, 0x61, 0x6c, 0x5f, 0x31, 0x2f, 0x64, 0x65, 0x6e, 0x73, 0x65, 0x5f, 0x44, 0x65, 0x6e, 0x73, 0x65, 0x32, 0x2f, 0x4d, 0x61, 0x74, 0x4d, 0x75, 0x6c, 0x3b, 0x73, 0x65, 0x71, 0x75, 0x65, 0x6e, 0x74, 0x69, 0x61, 0x6c, 0x5f, 0x31, 0x2f, 0x64, 0x65, 0x6e, 0x73, 0x65, 0x5f, 0x44, 0x65, 0x6e, 0x73, 0x65, 0x32, 0x2f, 0x42, 0x69, 0x61, 0x73, 0x41, 0x64, 0x64, 0x0, 0x0, 0xa0, 0xd5, 0xff, 0xff, 0x0, 0x0, 0xe, 0x0, 0x16, 0x0, 0x0, 0x0, 0x8, 0x0, 0xc, 0x0, 0x7, 0x0, 0x10, 0x0, 0xe, 0x0, 0x0, 0x0, 0x0, 0x0, 0x0, 0x8, 0x24, 0x0, 0x0, 0x0, 0x18, 0x0, 0x0, 0x0, 0xc, 0x0, 0x0, 0x0, 0x0, 0x0, 0x6, 0x0, 0x8, 0x0, 0x7, 0x0, 0x6, 0x0, 0x0, 0x0, 0x0, 0x0, 0x0, 0x1, 0x1, 0x0, 0x0, 0x0, 0x5, 0x0, 0x0, 0x0, 0x3, 0x0, 0x0, 0x0, 0x0, 0x0, 0x0, 0x0, 0x3, 0x0, 0x0, 0x0, 0x2, 0x0, 0x0, 0x0, 0xc, 0x0, 0x10, 0x0, 0xb, 0x0, 0x0, 0x0, 0xc, 0x0, 0x4, 0x0, 0xc, 0x0, 0x0, 0x0, 0x9, 0x0, 0x0, 0x0, 0x0, 0x0, 0x0, 0x9, 0x1, 0x0, 0x0, 0x0, 0x70, 0xd5, 0xff, 0xff, 0x14, 0x0, 0x0, 0x0, 0x6, 0x0, 0x0, 0x0, 0x24, 0x0, 0x0, 0x0, 0x88, 0x0, 0x0, 0x0, 0x10, 0x0, 0x0, 0x0, 0x2, 0x0, 0x0, 0x0, 0x1, 0x0, 0x0, 0x0, 0x10, 0x0, 0x0, 0x0, 0x2, 0x0, 0x0, 0x0, 0xff, 0xff, 0xff, 0xff, 0x10, 0x0, 0x0, 0x0, 0x61, 0x0, 0x0, 0x0, 0x73, 0x65, 0x71, 0x75, 0x65, 0x6e, 0x74, 0x69, 0x61, 0x6c, 0x5f, 0x31, 0x2f, 0x64, 0x65, 0x6e, 0x73, 0x65, 0x5f, 0x44, 0x65, 0x6e, 0x73, 0x65, 0x31, 0x2f, 0x4d, 0x61, 0x74, 0x4d, 0x75, 0x6c, 0x3b, 0x73, 0x65, 0x71, 0x75, 0x65, 0x6e, 0x74, 0x69, 0x61, 0x6c, 0x5f, 0x31, 0x2f, 0x64, 0x65, 0x6e, 0x73, 0x65, 0x5f, 0x44, 0x65, 0x6e, 0x73, 0x65, 0x31, 0x2f, 0x52, 0x65, 0x6c, 0x75, 0x3b, 0x73, 0x65, 0x71, 0x75, 0x65, 0x6e, 0x74, 0x69, 0x61, 0x6c, 0x5f, 0x31, 0x2f, 0x64, 0x65, 0x6e, 0x73, 0x65, 0x5f, 0x44, 0x65, 0x6e, 0x73, 0x65, 0x31, 0x2f, 0x42, 0x69, 0x61, 0x73, 0x41, 0x64, 0x64, 0x0, 0x0, 0x0, 0xa8, 0xd5, 0xff, 0xff, 0x9e, 0xd6, 0xff, 0xff, 0x4, 0x0, 0x0, 0x0, 0x0, 0x1, 0x0, 0x0, 0x58, 0x1a, 0x29, 0xbe, 0xf1, 0xc5, 0xcd, 0xbf, 0xa9, 0x8c, 0x78, 0xbe, 0xf7, 0x90, 0xa3, 0x3f, 0x90, 0x98, 0xe1, 0x3e, 0x42, 0xef, 0xaf, 0xbf, 0x24, 0xc, 0x61, 0x3f, 0xd4, 0x2a, 0x95, 0xbe, 0xf2, 0x7c, 0xb7, 0x3e, 0xd7, 0x93, 0x55, 0xbf, 0xc6, 0xb, 0x36, 0x3d, 0xb1, 0xa0, 0x49, 0x3e, 0x62, 0xc6, 0x86, 0x3f, 0xf3, 0xd0, 0x85, 0xbe, 0xf0, 0xfd, 0xff, 0xbe, 0xc5, 0xaf, 0xae, 0x3e, 0xa6, 0x31, 0xc0, 0xbd, 0xc, 0x89, 0xb6, 0x3e, 0xbc, 0x6a, 0x8, 0xbf, 0x96, 0x6d, 0x10, 0xbb, 0xec, 0xea, 0x81, 0x3e, 0xda, 0x26, 0x8e, 0x3f, 0x8d, 0x4, 0x9a, 0xbd, 0xed, 0xca, 0xbd, 0x3f, 0x35, 0x0, 0xb9, 0xbd, 0x95, 0x8b, 0x39, 0x3f, 0xfe, 0xce, 0x62, 0x3f, 0xeb, 0x90, 0x78, 0xbe, 0x77, 0xb5, 0x9, 0x3e, 0x3e, 0x3c, 0x19, 0xbe, 0x91, 0xf5, 0x26, 0xbe, 0xf4, 0x26, 0x2, 0xbf, 0x43, 0xf2, 0x1, 0xbd, 0x30, 0xc8, 0xd4, 0x3f, 0x7c, 0x9b, 0x46, 0x3f, 0xdd, 0xf0, 0x74, 0xbf, 0xde, 0x89, 0x60, 0x3e, 0x49, 0x6f, 0x34, 0x3e, 0x3, 0xe3, 0xc8, 0x3e, 0x94, 0x42, 0xc6, 0xbf, 0x6a, 0x11, 0x61, 0xbf, 0x36, 0x1f, 0x9, 0xbe, 0xa9, 0x7, 0x30, 0xbe, 0x5c, 0x2b, 0xc3, 0xbe, 0xac, 0x47, 0xbc, 0x3e, 0x0, 0x4b, 0x6, 0x3c, 0xe5, 0xad, 0x55, 0x3f, 0xef, 0x2, 0xd9, 0x3c, 0x97, 0x25, 0xbe, 0x3e, 0x24, 0xc, 0x2a, 0xbf, 0x86, 0x68, 0x51, 0xbf, 0x21, 0x23, 0x57, 0xbe, 0x28, 0x7c, 0x76, 0x3e, 0x4, 0x8a, 0x30, 0xbe, 0x7b, 0xd1, 0xeb, 0xbe, 0x50, 0x18, 0x8e, 0xba, 0xa6, 0x6c, 0xd, 0x3f, 0x74, 0x39, 0x1d, 0x3f, 0x9a, 0x3d, 0x25, 0xbf, 0xb7, 0xbb, 0x3c, 0x3f, 0xde, 0xaa, 0x4c, 0xbf, 0x5b, 0x16, 0x41, 0x3f, 0x5e, 0x76, 0x71, 0xbe, 0x95, 0x96, 0x47, 0x3f, 0x86, 0xd7, 0xff, 0xff, 0x10, 0x0, 0x0, 0x0, 0x5, 0x0, 0x0, 0x0, 0x14, 0x0, 0x0, 0x0, 0x38, 0x0, 0x0, 0x0, 0x2, 0x0, 0x0, 0x0, 0x4, 0x0, 0x0, 0x0, 0x10, 0x0, 0x0, 0x0, 0x20, 0x0, 0x0, 0x0, 0x73, 0x65, 0x71, 0x75, 0x65, 0x6e, 0x74, 0x69, 0x61, 0x6c, 0x5f, 0x31, 0x2f, 0x64, 0x65, 0x6e, 0x73, 0x65, 0x5f, 0x44, 0x65, 0x6e, 0x73, 0x65, 0x32, 0x2f, 0x4d, 0x61, 0x74, 0x4d, 0x75, 0x6c, 0x0, 0x0, 0x0, 0x0, 0x0, 0xd7, 0xff, 0xff, 0xf6, 0xd7, 0xff, 0xff, 0x4, 0x0, 0x0, 0x0, 0x0, 0x27, 0x0, 0x0, 0x94, 0xa2, 0x6, 0x3d, 0xcb, 0x96, 0x44, 0xbd, 0x4c, 0x5c, 0xfb, 0xbd, 0xbf, 0xfa, 0xaf, 0x3d, 0xca, 0x15, 0x2b, 0xbc, 0x4d, 0x63, 0xec, 0xbd, 0xc8, 0x61, 0x88, 0x3d, 0xf3, 0xb4, 0x85, 0xbd, 0x38, 0x49, 0xa7, 0xbd, 0x4e, 0x5e, 0xd2, 0x3d, 0x5f, 0x85, 0x11, 0xbd, 0xd8, 0x86, 0xa0, 0xbd, 0xb, 0x6b, 0x35, 0x3c, 0x0, 0x39, 0x45, 0xbc, 0x4e, 0x80, 0xbb, 0x3d, 0x9c, 0xc3, 0x1c, 0x3e, 0x10, 0x23, 0x52, 0xbe, 0xe, 0x85, 0xd1, 0x3d, 0x8b, 0x63, 0xc4, 0xbd, 0x2d, 0x7b, 0x26, 0xbd, 0xe3, 0xd6, 0x3a, 0xbe, 0x4b, 0x9a, 0x1d, 0xbe, 0x0, 0xcc, 0x90, 0xbd, 0x9c, 0x5b, 0x15, 0x3e, 0x50, 0x65, 0xb2, 0xbd, 0xa2, 0xcc, 0x8b, 0x3d, 0x72, 0xf6, 0x2, 0xbd, 0x74, 0xb7, 0x9c, 0x3d, 0x1e, 0xeb, 0x99, 0xbd, 0xa0, 0x7a, 0x14, 0xbd, 0x8b, 0x9c, 0x3c, 0x3c, 0xc4, 0xc0, 0x19, 0x3e, 0x44, 0x77, 0x61, 0x3d, 0x49, 0xff, 0x8e, 0xbd, 0xe4, 0x82, 0x5f, 0x3d, 0x99, 0x41, 0x6a, 0x3d, 0x46, 0xca, 0xc2, 0xbc, 0x4, 0x4c, 0xac, 0x3d, 0x88, 0x24, 0xc6, 0x3d, 0xb0, 0x49, 0x19, 0x3e, 0x92, 0x13, 0x87, 0x3d, 0x6a, 0xc0, 0xc9, 0x3c, 0x72, 0xac, 0xe9, 0xbd, 0xa3, 0x47, 0x9, 0x3e, 0x48, 0x1d, 0x4e, 0x3d, 0x16, 0x3b, 0x4c, 0x3d, 0xa4, 0x35, 0xec, 0x3c, 0xf2, 0x9d, 0x9b, 0x3d, 0x7d, 0x4b, 0xe6, 0xbc, 0xcd, 0x64, 0x5, 0x3e, 0xf9, 0xad, 0xb6, 0xbb, 0x44, 0x91, 0x62, 0x3e, 0xb4, 0x31, 0x31, 0xbe, 0xfd, 0x5c, 0x1a, 0x3c, 0xb2, 0xe, 0x2a, 0xbb, 0x9b, 0xa4, 0x88, 0xbd, 0x2b, 0x64, 0x87, 0x3e, 0xd1, 0x7e, 0x8, 0xbe, 0x41, 0xe5, 0x8, 0xbd, 0xbf, 0x7b, 0xf5, 0x3d, 0x75, 0xca, 0x81, 0xbd, 0xec, 0x76, 0xab, 0x3d, 0xb1, 0x6c, 0x76, 0xbd, 0xae, 0xec, 0x53, 0x3e, 0x46, 0x62, 0xa2, 0x3d, 0xb3, 0x7e, 0xf5, 0xbb, 0x55, 0x29, 0xe9, 0xbd, 0x73, 0x9f, 0x80, 0x3a, 0x7b, 0xa1, 0x27, 0x3d, 0xde, 0xa2, 0xf3, 0xbb, 0x20, 0x6f, 0x66, 0xbc, 0xe0, 0xee, 0xa, 0xbe, 0xac, 0x11, 0x5, 0xbd, 0xdd, 0x9e, 0xc7, 0xbd, 0x17, 0x32, 0xa7, 0x3d, 0xc6, 0xe8, 0x33, 0x3e, 0x83, 0x37, 0x15, 0x3e, 0xa6, 0x36, 0xa7, 0x3d, 0x4d, 0x7a, 0xe8, 0xbb, 0x21, 0x93, 0xc9, 0xbd, 0xae, 0xf2, 0xf0, 0x3d, 0x84, 0x36, 0x2b, 0x3c, 0x9d, 0x49, 0xd, 0x3b, 0x43, 0x5b, 0x1, 0xbe, 0xbb, 0x4a, 0x38, 0xbd, 0x9f, 0xca, 0xb4, 0xbc, 0xd1, 0x26, 0x1f, 0x3e, 0x44, 0x7b, 0x36, 0xbd, 0xaa, 0xdb, 0x92, 0xbd, 0xe0, 0x42, 0x26, 0xbd, 0x4f, 0x9d, 0xd8, 0x3d, 0x44, 0x25, 0x21, 0x3e, 0xeb, 0x5e, 0x18, 0xbd, 0xd1, 0xb, 0x9b, 0xbd, 0x94, 0xbb, 0x35, 0x3d, 0x50, 0x59, 0xa3, 0x3d, 0xe, 0x48, 0xa0, 0xbd, 0x5a, 0xf7, 0xb, 0xbe, 0xee, 0x97, 0x79, 0xbd, 0x91, 0xab, 0xd8, 0xbd, 0x51, 0x8f, 0x78, 0xbd, 0xe6, 0xe, 0x70, 0x3d, 0x66, 0xd6, 0x0, 0xbe, 0x5f, 0x4e, 0x56, 0x3e, 0xd6, 0xc5, 0x65, 0x3b, 0x6e, 0x3e, 0x69, 0xbd, 0x6e, 0x57, 0xc5, 0xbd, 0x82, 0xb5, 0x55, 0x3e, 0x5b, 0xae, 0x98, 0xbd, 0xad, 0xed, 0x68, 0xbd, 0x1c, 0x5e, 0xcb, 0x3c, 0x6b, 0xf8, 0x36, 0xbd, 0x1f, 0xf7, 0x6, 0xbe, 0xad, 0xaa, 0xbb, 0xbd, 0x96, 0x98, 0x19, 0x3e, 0x9b, 0xe, 0x46, 0x3d, 0xd5, 0xde, 0x71, 0xbd, 0xf6, 0x26, 0x97, 0x3d, 0x3a, 0xf5, 0xce, 0xbc, 0x73, 0x47, 0xc0, 0x3d, 0x94, 0xa, 0x7e, 0x3d, 0xb7, 0x6e, 0x59, 0x3d, 0x7f, 0x29, 0xd8, 0xbd, 0x53, 0xa, 0x1d, 0xbd, 0xe3, 0x7f, 0xc4, 0xbd, 0xfb, 0xbe, 0xf7, 0x3d, 0x4c, 0xcc, 0xf2, 0xbd, 0x32, 0x83, 0x78, 0xbd, 0xb0, 0xb2, 0x3c, 0x3c, 0xea, 0x21, 0x6e, 0xbd, 0xbd, 0xfe, 0x8c, 0x3b, 0x1f, 0xab, 0x94, 0x3d, 0x4f, 0x75, 0x99, 0xbd, 0xa8, 0x2b, 0x10, 0x3c, 0x4e, 0x51, 0x4e, 0x3e, 0x3, 0x21, 0xcf, 0xbc, 0x59, 0xd5, 0xc9, 0x3d, 0x98, 0x44, 0x48, 0xbe, 0xae, 0x2c, 0x3e, 0x3d, 0x42, 0x16, 0xc, 0x3e, 0x84, 0x8d, 0x25, 0x3d, 0xfe, 0xe5, 0x11, 0xbe, 0x68, 0xed, 0xd, 0xbe, 0xa7, 0xe3, 0xd3, 0xbd, 0xb6, 0x60, 0xd3, 0x3d, 0x66, 0x8e, 0x2, 0xbd, 0xc7, 0x1f, 0x6b, 0x3e, 0xb8, 0x55, 0xba, 0xbb, 0xef, 0x94, 0xf8, 0x3b, 0xdc, 0x19, 0x76, 0xbd, 0xf, 0x9e, 0xc3, 0x3c, 0x7c, 0xb1, 0x88, 0xbd, 0xf2, 0x89, 0xd1, 0x3d, 0x9f, 0xbc, 0x89, 0xbd, 0x8, 0x24, 0x3, 0xbe, 0xff, 0x9c, 0xbc, 0xbd, 0xf5, 0xeb, 0x46, 0xbc, 0xae, 0x91, 0x9f, 0x3d, 0xb, 0xff, 0x58, 0x3d, 0x45, 0x1b, 0x91, 0x3e, 0xa, 0xe6, 0x57, 0x3e, 0x5f, 0x59, 0x94, 0x3d, 0xc6, 0xd, 0x45, 0xbd, 0x49, 0x27, 0x50, 0x3d, 0x8f, 0x5f, 0xd2, 0xbc, 0x76, 0xcf, 0xa6, 0x3e, 0xf0, 0xa1, 0x87, 0x3b, 0xc9, 0x60, 0x54, 0xbd, 0x70, 0x9b, 0xba, 0xbd, 0x58, 0xbc, 0x2, 0xbe, 0xa2, 0x61, 0x61, 0x3e, 0xa1, 0xb6, 0xbd, 0x3e, 0x26, 0xaa, 0x1f, 0x3e, 0xf8, 0x18, 0x35, 0xbe, 0x22, 0x12, 0xfa, 0x3d, 0x24, 0x35, 0x6, 0xbe, 0xcb, 0x65, 0xee, 0xbd, 0x31, 0x64, 0xac, 0x3e, 0x75, 0x63, 0x13, 0xbe, 0x66, 0xdf, 0xc3, 0x3d, 0xcd, 0x16, 0x82, 0xbd, 0x3f, 0xb, 0xc7, 0xbe, 0xcb, 0x4e, 0x1a, 0x3e, 0x5d, 0x58, 0xdf, 0x3d, 0x21, 0x59, 0xc4, 0x3d, 0xce, 0xc5, 0x6, 0x3e, 0x4e, 0x4d, 0xf2, 0x3c, 0xac, 0xc2, 0x1f, 0xbf, 0x3a, 0x87, 0x88, 0x3d, 0xbd, 0x1e, 0xd1, 0x3e, 0xd2, 0xc1, 0x91, 0xbd, 0xa1, 0x4b, 0x51, 0x3c, 0xc9, 0x4e, 0xed, 0x3d, 0x8d, 0x73, 0x1c, 0xbf, 0x59, 0xcd, 0x3b, 0x3c, 0xf4, 0xc2, 0xc4, 0x3e, 0x10, 0x22, 0xc, 0xbd, 0x53, 0x47, 0xcd, 0x3d, 0x99, 0xc8, 0x29, 0x3d, 0xd6, 0x82, 0x63, 0xbf, 0xaa, 0xc4, 0x67, 0x3e, 0xaf, 0xfa, 0x8, 0x3e, 0x75, 0x59, 0x6e, 0x3e, 0xd8, 0x63, 0xd, 0x3e, 0x82, 0x61, 0x79, 0xbd, 0xc6, 0xc1, 0x32, 0xbf, 0x42, 0xa6, 0xf9, 0x3d, 0x96, 0x20, 0x96, 0x3b, 0x37, 0x11, 0xb2, 0x3d, 0xe, 0x46, 0x9, 0xbb, 0x72, 0xbc, 0x9d, 0x3d, 0x3d, 0xc3, 0x80, 0xbf, 0xdb, 0xf, 0x2c, 0x3e, 0x4d, 0x54, 0x9f, 0xbd, 0x13, 0x4, 0xfb, 0x3d, 0x1f, 0x3f, 0x3f, 0x3e, 0x80, 0x57, 0x31, 0x3b, 0x6e, 0x97, 0x82, 0xbd, 0xb3, 0x2a, 0xa, 0x3e, 0x46, 0xdb, 0xb2, 0xbe, 0x30, 0x69, 0x77, 0xbd, 0xa8, 0x9a, 0x89, 0x3d, 0x87, 0xaa, 0xf7, 0x3c, 0xd7, 0xcd, 0x41, 0x3d, 0xae, 0x2, 0xfa, 0x3a, 0xdf, 0x80, 0xc3, 0xbe, 0x44, 0x37, 0x63, 0xba, 0x75, 0xb3, 0xe2, 0x3c, 0x97, 0x17, 0x83, 0x3c, 0xf7, 0x22, 0x68, 0x3e, 0xf8, 0xb2, 0x90, 0x3d, 0x44, 0x4b, 0xaa, 0xbe, 0x9, 0x63, 0x6b, 0x3d, 0xd3, 0xbd, 0x93, 0xbd, 0xa3, 0x7, 0x1d, 0xbe, 0xd5, 0x7c, 0x23, 0x3e, 0xd6, 0x1d, 0x4b, 0xbd, 0xf2, 0xa6, 0xb8, 0xbe, 0x64, 0x1e, 0x0, 0xbe, 0xf9, 0x36, 0x5a, 0xbd, 0x6d, 0xd5, 0x5a, 0x3e, 0xb9, 0x48, 0x32, 0xbd, 0xc, 0xf, 0x84, 0xbd, 0xe0, 0xbf, 0xf4, 0xbe, 0xb2, 0xe4, 0xef, 0x3d, 0x79, 0x4f, 0x22, 0xbe, 0xb9, 0x2f, 0x29, 0xbe, 0x82, 0x19, 0x4d, 0xbd, 0x60, 0x4d, 0x20, 0x3e, 0x50, 0x37, 0x75, 0xbe, 0x89, 0x3a, 0x53, 0xbe, 0xa9, 0x1e, 0xf5, 0xbc, 0xa9, 0x2b, 0x3b, 0xbe, 0x37, 0x75, 0xbc, 0x3e, 0xfa, 0x45, 0x3a, 0xbe, 0x59, 0x35, 0x4f, 0xbd, 0x7f, 0x7c, 0x6, 0x3e, 0xd2, 0xf5, 0x8d, 0x3d, 0x5b, 0xa8, 0x97, 0x3c, 0xf8, 0x4a, 0xd9, 0xbd, 0x75, 0x70, 0x77, 0x3d, 0x5c, 0xbf, 0x15, 0x3d, 0x1e, 0x7e, 0x27, 0x3e, 0x6, 0x1e, 0x70, 0xbd, 0x86, 0x43, 0xca, 0x3d, 0xf3, 0x12, 0x30, 0xbe, 0xd3, 0x1f, 0x84, 0x3d, 0x44, 0xe6, 0xd, 0xbe, 0x39, 0xa4, 0xd9, 0x3d, 0xb4, 0x37, 0x90, 0xbc, 0x5c, 0x17, 0x59, 0xbc, 0x60, 0x6, 0x9f, 0xbd, 0x71, 0x3c, 0x77, 0x3c, 0x34, 0xd2, 0xc6, 0xbb, 0xa3, 0xd2, 0x5c, 0x3d, 0xd4, 0x5e, 0x15, 0xbe, 0xb5, 0x2f, 0x54, 0x3d, 0x45, 0x64, 0x41, 0x3e, 0x29, 0x5c, 0x8b, 0xbd, 0x4f, 0xf8, 0x2d, 0x3e, 0xba, 0xa8, 0xa9, 0xbd, 0xd9, 0x3b, 0x75, 0x3d, 0xd2, 0x9b, 0xcb, 0xbd, 0xd1, 0xf9, 0x71, 0x3d, 0x29, 0x3c, 0xb0, 0x3c, 0x49, 0x4c, 0xba, 0xbd, 0xec, 0x7c, 0x92, 0xbc, 0x15, 0xf7, 0x38, 0x3e, 0x29, 0xc2, 0xab, 0x3d, 0xa1, 0xf9, 0x31, 0x3d, 0xb1, 0x30, 0xcf, 0xbd, 0xad, 0x57, 0x18, 0x3d, 0xba, 0xee, 0x2b, 0x3c, 0xa5, 0x67, 0x1f, 0x3d, 0xf1, 0x31, 0xaa, 0xbd, 0xe3, 0x91, 0x6c, 0x3d, 0xae, 0xe0, 0xb8, 0xbd, 0x69, 0x8e, 0xda, 0x3d, 0x28, 0xed, 0x95, 0x3d, 0xb8, 0xb5, 0x19, 0x3e, 0x3c, 0xb3, 0x10, 0x3e, 0xd4, 0x47, 0x9, 0xbe, 0x2a, 0x16, 0xa0, 0xbd, 0x5d, 0x38, 0x7, 0x3d, 0xcb, 0x2a, 0x90, 0xbd, 0x9a, 0x1c, 0x3b, 0x3e, 0xad, 0xac, 0xc3, 0xbd, 0x8b, 0x73, 0xfd, 0xbc, 0xe8, 0xcc, 0xcc, 0x3d, 0x8e, 0x4c, 0xbe, 0x3d, 0x5e, 0x1f, 0xa9, 0xbb, 0x24, 0x9c, 0x21, 0x3e, 0x50, 0x3, 0xe, 0x3d, 0x8a, 0xb1, 0x3c, 0x3e, 0x4c, 0xcb, 0x80, 0x3b, 0xf2, 0x2, 0xb6, 0xbd, 0x3e, 0xff, 0x93, 0x3d, 0x95, 0xa1, 0xda, 0x3c, 0x32, 0x7f, 0x6, 0xbe, 0x91, 0x58, 0xcb, 0x3c, 0xf7, 0xca, 0x36, 0x3e, 0xdd, 0xbb, 0x3a, 0x39, 0x35, 0x67, 0xd6, 0xbd, 0x82, 0x94, 0xfa, 0xbd, 0x2f, 0x6a, 0x90, 0xbd, 0xdb, 0xac, 0xba, 0xbd, 0xd7, 0x39, 0x1f, 0x3e, 0x9f, 0x21, 0x4d, 0x3e, 0xb8, 0xb5, 0xc5, 0xbd, 0xf9, 0xa9, 0xd1, 0xbc, 0x8d, 0x4b, 0xf9, 0x3d, 0x61, 0xff, 0x4f, 0xbe, 0x9, 0xfb, 0xb, 0xbd, 0xab, 0xb9, 0x59, 0x3c, 0x7a, 0xbd, 0x2f, 0x3e, 0xf0, 0x3c, 0xa2, 0xbd, 0x96, 0xec, 0x94, 0xbd, 0x12, 0xbf, 0x8f, 0xbe, 0x83, 0xb7, 0x95, 0x3c, 0x7b, 0x9e, 0xa7, 0x3d, 0xb5, 0x4d, 0x86, 0x3d, 0xea, 0x7f, 0x23, 0x3e, 0x5b, 0xe9, 0x38, 0x3e, 0x65, 0x52, 0x30, 0xbe, 0xa9, 0x42, 0xa7, 0xbd, 0x4e, 0x93, 0xd4, 0x3d, 0xeb, 0x3c, 0xf, 0x3e, 0xe6, 0x9b, 0xfc, 0x3d, 0xc2, 0x4a, 0x17, 0x3e, 0x54, 0xa0, 0x9d, 0xbe, 0x3e, 0x3d, 0x42, 0x3c, 0xcf, 0x31, 0x8d, 0x3d, 0x9c, 0x7d, 0x7b, 0xbd, 0xb4, 0x62, 0x22, 0x3e, 0xb9, 0xbb, 0x3c, 0x3c, 0x4e, 0xfc, 0xc0, 0xbe, 0x2a, 0xeb, 0x13, 0x3e, 0x6a, 0xc8, 0x67, 0x3e, 0xee, 0x7d, 0x8f, 0x3d, 0x7e, 0x52, 0xa5, 0xbd, 0x4e, 0xf6, 0x3c, 0xbd, 0xd3, 0x25, 0x3b, 0xbe, 0xc6, 0xf, 0x35, 0x3e, 0xfe, 0x72, 0x4, 0x3e, 0x25, 0x6c, 0xb2, 0xbd, 0x5b, 0xc4, 0xa, 0x3e, 0xd6, 0xb3, 0x29, 0x3e, 0x3f, 0x4a, 0xc9, 0xbe, 0x6b, 0xa9, 0x7b, 0x3c, 0xbc, 0x3c, 0x50, 0x3c, 0xdf, 0xc1, 0xa3, 0xbd, 0x9f, 0xb0, 0x76, 0x3d, 0x18, 0x5c, 0xed, 0x3d, 0x55, 0x80, 0xa1, 0x3c, 0xca, 0xa, 0x95, 0x3c, 0x96, 0x7b, 0x2a, 0x3d, 0xd9, 0x88, 0xff, 0xbd, 0xf7, 0xd0, 0xae, 0xbb, 0xde, 0x94, 0xae, 0x3d, 0x77, 0xce, 0xd4, 0x3d, 0x6d, 0xa, 0xab, 0xbd, 0xf7, 0x7c, 0x91, 0x3d, 0x84, 0x2, 0xaa, 0x3d, 0xec, 0x77, 0x82, 0xbd, 0x68, 0x8, 0x3f, 0x3e, 0x35, 0x75, 0x4d, 0xbd, 0x6a, 0x7d, 0x24, 0xbe, 0x19, 0xcf, 0x59, 0x3e, 0x2, 0x14, 0x40, 0x3d, 0x88, 0x6f, 0x8b, 0xbd, 0x81, 0x4d, 0x43, 0xbc, 0x13, 0x5e, 0x97, 0x3e, 0xbc, 0x36, 0x6e, 0xbe, 0x76, 0x6d, 0x2d, 0xbd, 0x1a, 0xe7, 0x20, 0xbd, 0xd7, 0x8a, 0xaf, 0xbc, 0x73, 0xe, 0x7d, 0x3b, 0x79, 0x64, 0xcc, 0xbd, 0x16, 0xde, 0x74, 0xbe, 0x77, 0xad, 0x17, 0xbe, 0x51, 0xc9, 0xd8, 0x3d, 0x4b, 0x69, 0x37, 0xbe, 0x7a, 0x75, 0x14, 0xbd, 0xa3, 0x4a, 0xf2, 0x3b, 0x74, 0xe, 0x8e, 0x3c, 0x3b, 0xf6, 0x4, 0x3e, 0x6e, 0x54, 0x9d, 0x3c, 0x72, 0x58, 0x20, 0xbc, 0xeb, 0x0, 0x59, 0xbd, 0x91, 0xf2, 0x91, 0x3e, 0x5c, 0x5b, 0x72, 0xbe, 0xbc, 0xd2, 0x6c, 0x3c, 0x66, 0xe6, 0x6f, 0x3e, 0x10, 0x4e, 0x6, 0xbe, 0x2d, 0x79, 0xaa, 0x3c, 0x5f, 0xc2, 0xf, 0xbe, 0x83, 0xb7, 0xd0, 0x3d, 0x52, 0xe1, 0xec, 0xbd, 0x43, 0xd1, 0x28, 0x3c, 0x53, 0xfa, 0xa7, 0x3d, 0x15, 0xbf, 0x86, 0x3c, 0xf6, 0x4f, 0x3b, 0xbe, 0xdd, 0xad, 0xa5, 0x3d, 0xb4, 0xca, 0x4a, 0x3e, 0x23, 0xef, 0x2, 0xbd, 0x1f, 0x89, 0x6, 0xbe, 0x22, 0x4e, 0x88, 0xbd, 0x12, 0x9c, 0x99, 0x3b, 0x96, 0x4f, 0x8, 0x3e, 0x1d, 0xc5, 0x86, 0x3d, 0x5, 0x15, 0xcd, 0x3d, 0x4, 0x20, 0x56, 0xbd, 0xf4, 0xdf, 0xbb, 0x3d, 0x20, 0x4f, 0x16, 0x3d, 0x22, 0x1b, 0x1f, 0xbd, 0xaf, 0x72, 0xfd, 0x3d, 0xd0, 0xf7, 0x28, 0x3e, 0x60, 0xdc, 0x91, 0x3d, 0x56, 0xb9, 0xde, 0xbd, 0xf, 0xdb, 0xf4, 0x3d, 0xb8, 0xa9, 0x4f, 0xbd, 0xde, 0x18, 0x3b, 0xbd, 0x1b, 0xe1, 0x7, 0x3e, 0xbc, 0x9f, 0x1d, 0x3d, 0x6a, 0x6b, 0x16, 0x3e, 0xe8, 0xec, 0xb7, 0x3d, 0x64, 0xef, 0xea, 0xbd, 0x6f, 0x63, 0x3e, 0x3e, 0xc9, 0xd8, 0xf9, 0xbb, 0xbe, 0xda, 0xaa, 0x3b, 0x64, 0x39, 0x4, 0xbb, 0x6a, 0xb4, 0x4e, 0xbe, 0xf5, 0xc, 0x63, 0x3d, 0xf1, 0xa4, 0xb4, 0x3c, 0x37, 0xd7, 0x8, 0xbe, 0x3d, 0x9f, 0xb5, 0x3c, 0x73, 0x6a, 0xf2, 0x3c, 0xfb, 0xd5, 0x1d, 0x3c, 0x53, 0x3a, 0x89, 0xbd, 0x1f, 0xcd, 0x21, 0x3e, 0xca, 0x14, 0xbc, 0xbc, 0xab, 0x47, 0xc2, 0xbb, 0x3b, 0x2a, 0x45, 0xbd, 0x76, 0xd0, 0xc8, 0x3d, 0xfa, 0xa0, 0x1, 0x3e, 0xa5, 0x8e, 0x21, 0x3e, 0xe7, 0x30, 0x87, 0xbd, 0x9a, 0x29, 0x23, 0xbe, 0x76, 0x87, 0x6f, 0xbd, 0x1b, 0xc1, 0xd3, 0xbd, 0x7f, 0x4, 0xf5, 0x3d, 0x55, 0x13, 0x87, 0xbe, 0x52, 0x2b, 0x3f, 0x3d, 0x5d, 0xf4, 0x54, 0x3d, 0xbe, 0x25, 0x9d, 0x3d, 0xc1, 0x2c, 0xa7, 0x3d, 0x41, 0xc1, 0x1d, 0xbd, 0x96, 0x5, 0x1e, 0xbe, 0x1a, 0x6d, 0xd3, 0xbd, 0x8a, 0xa4, 0x12, 0xbe, 0xab, 0x0, 0xc, 0xbe, 0xb3, 0xa6, 0x1f, 0xbd, 0x67, 0xc4, 0xc0, 0xbc, 0x6a, 0x5f, 0x6a, 0xbe, 0x7c, 0x8a, 0x55, 0xbe, 0x88, 0xcb, 0xa5, 0x3d, 0x32, 0xfc, 0xc8, 0xbc, 0x1c, 0x77, 0x8f, 0xbc, 0x1b, 0xb1, 0xd, 0x3e, 0xf9, 0x71, 0xa8, 0xbe, 0xf8, 0x25, 0x1f, 0x3e, 0xb1, 0xf3, 0x91, 0xbd, 0xf4, 0x3, 0xd1, 0xbd, 0x82, 0xe, 0x92, 0x3e, 0x18, 0x58, 0xb4, 0x3d, 0x41, 0x4c, 0x42, 0xbe, 0xb2, 0x6, 0x32, 0xbe, 0xef, 0xc8, 0xd3, 0x3b, 0x77, 0xea, 0x13, 0xbe, 0x6c, 0xa1, 0x5a, 0x3e, 0xb7, 0x3d, 0xc0, 0x3d, 0x7f, 0x93, 0xf6, 0xbd, 0xa4, 0x73, 0x4, 0xbc, 0xcc, 0xc, 0xd8, 0xbd, 0xd2, 0x6a, 0x42, 0xbc, 0x47, 0x4, 0x67, 0x3e, 0x92, 0x6f, 0xfd, 0xbd, 0x22, 0xcf, 0x5d, 0xbe, 0xd9, 0xbf, 0x54, 0xbd, 0xbf, 0xa6, 0xd5, 0xbd, 0xc6, 0x22, 0x5d, 0xbd, 0x98, 0xc9, 0xe3, 0x3e, 0x7c, 0x84, 0x82, 0xbd, 0x22, 0xe4, 0x9e, 0xbe, 0x90, 0x28, 0x21, 0xbe, 0xb6, 0x17, 0x3b, 0xbe, 0xfb, 0xc6, 0x33, 0xbd, 0x4a, 0x5f, 0xec, 0x3e, 0x5f, 0xc1, 0x89, 0xbe, 0x4b, 0x86, 0x35, 0xbe, 0x28, 0x78, 0x36, 0xbe, 0x1c, 0xcc, 0xdd, 0xbd, 0x12, 0x3e, 0xf4, 0xbd, 0xd, 0xa, 0x7c, 0x3e, 0xa3, 0x81, 0xd8, 0xbc, 0xed, 0xca, 0x33, 0xbe, 0x28, 0x2c, 0xaa, 0x3d, 0x9e, 0x52, 0xa1, 0x3d, 0xc7, 0xc9, 0x96, 0x3d, 0x79, 0xd9, 0x30, 0xbd, 0x7, 0x51, 0xad, 0xbd, 0x9, 0x32, 0x3b, 0x3c, 0x5f, 0xed, 0x41, 0xbd, 0xbd, 0xc8, 0xcc, 0xbd, 0x70, 0xe9, 0x7a, 0xbd, 0xc4, 0x3b, 0xe9, 0xbc, 0x63, 0xc8, 0x89, 0x3d, 0x4a, 0x62, 0x41, 0x3c, 0x97, 0x6c, 0x92, 0x3d, 0x4b, 0xa0, 0x59, 0xbe, 0xe6, 0xf1, 0x1, 0x3a, 0xd0, 0x18, 0x66, 0x3d, 0xa9, 0xca, 0x11, 0x3e, 0x24, 0x2d, 0x27, 0x3e, 0xd6, 0x6a, 0xa4, 0x3d, 0x10, 0x6d, 0xfb, 0xbb, 0xc, 0xa1, 0x6, 0xbd, 0x52, 0x5c, 0x41, 0x3a, 0x56, 0x3b, 0xa, 0x3e, 0x43, 0x92, 0xed, 0x3d, 0xd6, 0x86, 0x0, 0x3e, 0xe, 0x47, 0x55, 0x3e, 0x62, 0x69, 0x74, 0x3d, 0xed, 0xac, 0xc6, 0x3d, 0x19, 0x9a, 0x2b, 0xbe, 0x53, 0xc1, 0x4a, 0x3d, 0x51, 0x58, 0x81, 0xbd, 0x51, 0xf9, 0x8c, 0x3c, 0x19, 0xc8, 0xe, 0xbd, 0x21, 0xe8, 0xc1, 0xbb, 0x5a, 0x35, 0x3, 0x3d, 0x31, 0x1a, 0x30, 0xbe, 0x91, 0xc6, 0x81, 0xbd, 0x7d, 0x4c, 0x67, 0x3e, 0x9c, 0x23, 0x98, 0x3d, 0x5f, 0x5f, 0x5, 0xbe, 0xe, 0xe9, 0x31, 0xbb, 0x3f, 0x58, 0x26, 0x3d, 0xd5, 0x33, 0x49, 0xbd, 0x1b, 0x93, 0xe6, 0xbc, 0x8e, 0xde, 0x84, 0xbd, 0x22, 0xd3, 0x12, 0x3e, 0x2, 0x47, 0x6, 0xbe, 0xce, 0x77, 0x69, 0x3d, 0x65, 0xc9, 0xe4, 0x3d, 0xc9, 0x28, 0x38, 0x3d, 0x1d, 0x8b, 0x28, 0x3e, 0xbc, 0xd5, 0xd0, 0x3c, 0x5f, 0x12, 0xd4, 0xbd, 0xdb, 0x3f, 0x6, 0xbd, 0xba, 0x48, 0xfc, 0xbc, 0x7c, 0x6d, 0x94, 0x3d, 0xbf, 0x99, 0x31, 0xbe, 0x69, 0xcc, 0x2d, 0x3d, 0x29, 0x1b, 0xda, 0x3d, 0xb6, 0xf3, 0xc9, 0xbc, 0x80, 0x81, 0x44, 0xbc, 0x3, 0x5d, 0x8a, 0x3d, 0x37, 0x9d, 0x17, 0xbd, 0x19, 0xe6, 0xf3, 0xbd, 0x1f, 0x4f, 0x68, 0xbe, 0xce, 0xb1, 0xea, 0x3d, 0xb5, 0xb3, 0x0, 0xbd, 0xa0, 0xbc, 0x58, 0xbd, 0x19, 0x14, 0x53, 0xbc, 0x11, 0xd8, 0x13, 0x3e, 0xb6, 0x15, 0x7f, 0xbd, 0xeb, 0xe0, 0x6c, 0xbe, 0x62, 0x3a, 0xf2, 0x3d, 0x4e, 0xab, 0x4, 0xbe, 0xa, 0x3, 0xab, 0x3d, 0x96, 0x90, 0xf2, 0xbd, 0x98, 0xe2, 0xf1, 0xbd, 0x1b, 0x87, 0x9f, 0x3d, 0x99, 0x4e, 0x9d, 0xbd, 0x43, 0xe9, 0xfb, 0x3a, 0xf7, 0x82, 0x81, 0xbd, 0x8b, 0x5c, 0x42, 0x3c, 0x56, 0x2, 0x83, 0x3d, 0xd4, 0xcf, 0x36, 0x3e, 0x70, 0xd5, 0x6c, 0xbd, 0xa1, 0x1a, 0x6f, 0xbd, 0xf1, 0xb, 0x4f, 0xbd, 0xa7, 0x5b, 0x93, 0xbd, 0xeb, 0xe7, 0x88, 0xbc, 0x2e, 0x13, 0xac, 0x3d, 0x39, 0xc6, 0x45, 0xbc, 0x11, 0xdf, 0xf0, 0x3d, 0x82, 0x34, 0x2e, 0xbd, 0xee, 0x72, 0x8d, 0x3c, 0x8f, 0xf9, 0xe, 0x3d, 0xa2, 0xa7, 0xa0, 0x3d, 0xad, 0xff, 0xb8, 0x3d, 0x57, 0xef, 0x8, 0xbe, 0x45, 0x31, 0x16, 0xbe, 0x79, 0xfa, 0x94, 0xbd, 0xd6, 0xdc, 0xd6, 0x3d, 0x46, 0xf0, 0xe7, 0xbd, 0xd, 0xed, 0xdd, 0xbd, 0x4a, 0x1a, 0x30, 0xbd, 0x32, 0x92, 0x1a, 0x3d, 0x21, 0xa1, 0x3a, 0xbe, 0x3e, 0x59, 0x9d, 0x3d, 0xc8, 0x36, 0x19, 0x3c, 0x30, 0xbe, 0xe, 0x3d, 0x43, 0x72, 0xf5, 0xbd, 0xf9, 0x1b, 0x33, 0xbd, 0x7e, 0x94, 0xf7, 0xbc, 0xcc, 0xc9, 0x18, 0x3e, 0xea, 0x87, 0xe1, 0xbd, 0x45, 0xf8, 0x1a, 0x3e, 0xbd, 0x1a, 0x3d, 0xbe, 0x12, 0xb1, 0xc8, 0xbd, 0x94, 0x6b, 0x6, 0xbd, 0xa8, 0x29, 0x26, 0xbe, 0xeb, 0x25, 0x16, 0xbd, 0x34, 0xa9, 0x8e, 0x3c, 0x25, 0x3f, 0x21, 0xbe, 0x37, 0xfc, 0x11, 0xbd, 0xb2, 0x71, 0x91, 0x3c, 0xd3, 0x6c, 0x6c, 0x3d, 0xb7, 0x5c, 0x1, 0x3e, 0x52, 0x98, 0x34, 0xbe, 0x28, 0xdb, 0x53, 0xbe, 0x9f, 0xf5, 0x9e, 0x3d, 0x14, 0xef, 0x1e, 0xbe, 0xbd, 0x7f, 0x14, 0xbe, 0xc7, 0xc3, 0xfc, 0x3d, 0x15, 0x86, 0x95, 0x3c, 0xd6, 0x18, 0xf6, 0xbd, 0xb2, 0x7d, 0x3b, 0xbe, 0xed, 0x5f, 0x7c, 0xbd, 0x46, 0x88, 0xc5, 0x3d, 0x9b, 0xf, 0x72, 0xbd, 0x19, 0x99, 0xb4, 0x3d, 0xe4, 0xef, 0xd0, 0xbd, 0x58, 0x58, 0xe7, 0xbd, 0xd5, 0xda, 0x8a, 0xbd, 0x5f, 0xf0, 0x1, 0xbe, 0x8f, 0x90, 0x3f, 0xbd, 0x68, 0x3d, 0xe8, 0xbd, 0xbe, 0x1, 0x4a, 0xbe, 0xad, 0x1a, 0xab, 0x3d, 0xda, 0xf5, 0xf3, 0xbd, 0x8, 0xe5, 0x52, 0xbe, 0xb8, 0x32, 0x90, 0xbd, 0xf5, 0x61, 0x9c, 0xbd, 0xf3, 0x1d, 0x3f, 0xbc, 0x7b, 0x57, 0x7d, 0xbd, 0x99, 0x43, 0xc, 0x3e, 0xc8, 0x9c, 0x47, 0xbd, 0x3a, 0xd, 0xc8, 0xbd, 0xd3, 0xbb, 0xf1, 0x3c, 0x79, 0xf6, 0xc0, 0xbd, 0x7d, 0x3a, 0x87, 0xbd, 0x16, 0xbe, 0x91, 0x3d, 0xac, 0xa6, 0x8f, 0x39, 0xa4, 0xd3, 0x11, 0x3e, 0xea, 0x74, 0x19, 0x3d, 0xd1, 0x19, 0x1b, 0xbe, 0xe4, 0xcc, 0xee, 0x3d, 0xd3, 0x31, 0x2c, 0xbe, 0xd6, 0x5b, 0x0, 0xbe, 0x6, 0x54, 0x5d, 0xbc, 0x1a, 0xfb, 0x62, 0xbd, 0x7a, 0xad, 0x8e, 0xbd, 0x1c, 0x7d, 0x5a, 0x3d, 0xa7, 0x9b, 0x74, 0x3c, 0xe, 0x8c, 0x3b, 0x3d, 0xc0, 0xe1, 0xd, 0x3d, 0xf0, 0x98, 0xaa, 0xbd, 0x97, 0x29, 0x5a, 0xbd, 0x4d, 0xfe, 0xc2, 0x3d, 0x96, 0xa6, 0x86, 0x3c, 0x95, 0x17, 0xa0, 0xbd, 0x76, 0x2, 0x3f, 0xbe, 0xc0, 0x5a, 0x63, 0xbd, 0x81, 0x4a, 0xe9, 0x3c, 0x4c, 0xb8, 0xe2, 0x3d, 0x35, 0xc6, 0x2c, 0x3d, 0xe3, 0xe8, 0x48, 0x3c, 0xf7, 0x2b, 0x2, 0xbd, 0xa, 0x63, 0x95, 0xbd, 0x8c, 0x63, 0xc, 0xbe, 0x4f, 0x6c, 0xb0, 0x3b, 0x7, 0x70, 0x2a, 0x3b, 0xcd, 0x94, 0xc, 0xbe, 0xe6, 0x7e, 0xaf, 0x3b, 0x39, 0x52, 0x8, 0xbe, 0xda, 0x78, 0x2b, 0x3e, 0xa5, 0x2c, 0x4e, 0x3c, 0xdd, 0x9d, 0xba, 0x3d, 0x34, 0xdd, 0x8, 0xbe, 0x8e, 0x16, 0x9d, 0x3b, 0xc, 0x2f, 0x14, 0x3d, 0xaf, 0x8, 0x1, 0xbc, 0x6d, 0x63, 0xc1, 0xbd, 0xd8, 0x8d, 0x82, 0xbd, 0xaf, 0x35, 0xaa, 0xbd, 0x58, 0x1e, 0xf4, 0xbd, 0x1c, 0x37, 0xdb, 0xbd, 0xa9, 0x52, 0x3b, 0xbc, 0xb9, 0x1c, 0x55, 0xbe, 0x7e, 0xa1, 0x71, 0xbd, 0x1d, 0x85, 0x44, 0xbe, 0x87, 0xe9, 0x12, 0x3d, 0x72, 0x4c, 0x74, 0x3d, 0x90, 0x1a, 0xf0, 0x3d, 0xa3, 0x3, 0x8c, 0xbc, 0x90, 0x52, 0x9, 0xbd, 0xf5, 0x92, 0xa6, 0x3c, 0xd2, 0xef, 0x45, 0x3d, 0x22, 0x11, 0x17, 0xbe, 0xbd, 0x14, 0x62, 0xbd, 0x8b, 0xe7, 0xde, 0xbd, 0x5f, 0x2, 0x22, 0xbd, 0xe7, 0xf1, 0xa3, 0x3d, 0x6e, 0xe8, 0x14, 0x3e, 0x35, 0xce, 0xce, 0xbd, 0x36, 0xc9, 0xe0, 0x3d, 0xb, 0xcb, 0xd4, 0x3c, 0x9f, 0x79, 0xd1, 0xbc, 0xa0, 0xe9, 0x69, 0xbd, 0x18, 0xad, 0xfa, 0x3c, 0x6c, 0xff, 0xd9, 0xbd, 0x78, 0x77, 0x73, 0x3d, 0x4e, 0xda, 0x91, 0xbd, 0xbd, 0xc6, 0x38, 0x3c, 0xa9, 0x40, 0xac, 0x3c, 0xf, 0x13, 0x5e, 0x3d, 0x1f, 0xa3, 0xa7, 0xbc, 0x7a, 0x1a, 0x3b, 0xbe, 0x6d, 0x73, 0x90, 0xbc, 0x93, 0xef, 0xa5, 0xbd, 0xf1, 0x54, 0xf, 0xbd, 0x8, 0x7f, 0x35, 0xbd, 0x18, 0xf7, 0x11, 0xbd, 0xe, 0x4c, 0xed, 0xbc, 0xe6, 0x97, 0xc7, 0x3b, 0xc2, 0x92, 0x19, 0x3e, 0x5d, 0xe6, 0xc4, 0xbc, 0x23, 0x31, 0xc0, 0x3c, 0xf4, 0x4c, 0xbe, 0x3d, 0x68, 0xa3, 0x17, 0x3a, 0xf6, 0x4c, 0x6, 0xbd, 0x75, 0x68, 0xad, 0xbc, 0xbc, 0xbc, 0xf1, 0xbd, 0x2c, 0xd1, 0x30, 0x3d, 0xe5, 0x44, 0x14, 0x3e, 0xa0, 0x7a, 0x9d, 0x3d, 0x21, 0x90, 0xce, 0xba, 0xb2, 0xd7, 0xe, 0x3d, 0xdf, 0x87, 0x1, 0xbc, 0x97, 0x39, 0xc5, 0x3e, 0x91, 0xd2, 0x60, 0x3e, 0xdf, 0xd2, 0xf4, 0xbb, 0x26, 0x23, 0x2, 0xbe, 0x23, 0x87, 0xd, 0xbe, 0x0, 0x2e, 0xb1, 0xbd, 0xc4, 0x60, 0x4, 0x3f, 0xef, 0xd9, 0x1, 0xbc, 0xa6, 0x60, 0x66, 0xbd, 0x94, 0x3e, 0x42, 0x3c, 0x6f, 0x10, 0x2, 0xbe, 0xfe, 0x3b, 0xce, 0xbc, 0x42, 0xfb, 0xd0, 0x3e, 0xba, 0x2, 0x8f, 0x3d, 0x4, 0xfa, 0x2f, 0xbe, 0xc2, 0x67, 0x2f, 0xbe, 0x6f, 0x83, 0x87, 0xbe, 0x8d, 0x61, 0x44, 0xbe, 0xcf, 0xbc, 0x9f, 0x3e, 0x5e, 0x55, 0x9, 0x3e, 0x7d, 0xaf, 0x4c, 0x3d, 0xc4, 0x56, 0x89, 0xbd, 0x50, 0xaf, 0x94, 0x3b, 0x34, 0x9f, 0xd2, 0xbd, 0xf3, 0xed, 0xa1, 0x3e, 0xe8, 0xca, 0xe, 0x3e, 0xb6, 0x2a, 0x9e, 0x3c, 0x65, 0x66, 0x3c, 0xbd, 0xac, 0xb4, 0x59, 0xbe, 0x2, 0xeb, 0x29, 0xbe, 0x2a, 0xdb, 0x3b, 0x3e, 0x19, 0xee, 0xda, 0xbd, 0x52, 0x86, 0xa2, 0x3d, 0x3d, 0x94, 0x98, 0xbd, 0xa3, 0x1d, 0xf0, 0xbd, 0xec, 0x9a, 0x95, 0xbd, 0xa9, 0x25, 0xcf, 0x3d, 0x4f, 0x2b, 0x95, 0xbc, 0x3e, 0x10, 0x1a, 0xbe, 0x92, 0xf5, 0x8f, 0xbd, 0x2e, 0xb3, 0xfa, 0xbd, 0x36, 0xae, 0xc9, 0x3d, 0x1f, 0xfd, 0x5c, 0xbe, 0x8c, 0x92, 0x37, 0xbd, 0xaf, 0x23, 0x5, 0x3e, 0xcf, 0x4a, 0xbf, 0xbd, 0x41, 0xf3, 0x78, 0xbe, 0x8e, 0x93, 0xe1, 0xbb, 0x18, 0x99, 0x28, 0xbe, 0x3d, 0x55, 0xfc, 0xbd, 0x35, 0x65, 0xe, 0xbd, 0x2b, 0xfb, 0x52, 0x3e, 0x1e, 0xee, 0x5, 0xbe, 0x3e, 0x8d, 0x18, 0xbe, 0x3c, 0xe3, 0xb9, 0xbe, 0x54, 0xaa, 0xa, 0xbd, 0x54, 0xe7, 0x79, 0xbd, 0x8e, 0x49, 0x4a, 0xbd, 0x91, 0xb, 0xd2, 0x3d, 0x14, 0x4, 0x41, 0xbd, 0x15, 0x94, 0x2e, 0xbf, 0x53, 0x8d, 0xe1, 0xbd, 0xb3, 0x36, 0x3f, 0x3e, 0x49, 0x5b, 0x4f, 0xbd, 0x82, 0x61, 0xbe, 0x3d, 0xb3, 0xb4, 0xb, 0x3d, 0x9c, 0x92, 0x13, 0xbf, 0xdc, 0x18, 0x7b, 0xbc, 0xb3, 0x62, 0x6a, 0xbc, 0xe3, 0xb0, 0x9a, 0x3d, 0x42, 0x8f, 0xfd, 0x3d, 0xc5, 0x7a, 0x55, 0x3e, 0x74, 0xf, 0x1a, 0xbf, 0xfd, 0x5c, 0xa2, 0x3d, 0x97, 0xb5, 0x28, 0xbc, 0x80, 0xd2, 0x1e, 0xbe, 0x3c, 0xcf, 0xdc, 0x3d, 0x11, 0x8f, 0x72, 0x3e, 0x17, 0xfc, 0xd4, 0xbe, 0xfc, 0xea, 0x54, 0xbd, 0xc7, 0x68, 0x38, 0xbe, 0x82, 0x2f, 0xb9, 0xbd, 0xea, 0xf9, 0x98, 0x3e, 0x62, 0x49, 0x22, 0x3e, 0xae, 0x4a, 0xaa, 0xbe, 0x65, 0xe8, 0x89, 0x3c, 0xc1, 0x5f, 0xce, 0xbd, 0x9b, 0xf4, 0xa0, 0xbc, 0x47, 0x35, 0x53, 0x3e, 0x10, 0x39, 0x2, 0x3e, 0x62, 0x5b, 0x4, 0x3d, 0xc1, 0x4, 0xf8, 0x3c, 0xe8, 0x73, 0x1c, 0xbe, 0x3c, 0x26, 0x5a, 0x3d, 0x63, 0x76, 0x2, 0x3e, 0x1f, 0x10, 0x91, 0x3d, 0x33, 0xb, 0x8, 0xbe, 0x44, 0x55, 0xb, 0xbc, 0x3f, 0xaa, 0x45, 0x3e, 0x71, 0xc2, 0xb0, 0x3c, 0xec, 0xf6, 0x4e, 0xbe, 0x1b, 0xb3, 0x31, 0xbd, 0xf2, 0x92, 0x21, 0xbd, 0xd4, 0xcf, 0x2b, 0xbe, 0xbe, 0x11, 0x19, 0x3e, 0x5, 0x76, 0xbe, 0xbd, 0x2d, 0x83, 0x4, 0xbe, 0x1c, 0x88, 0x46, 0x3d, 0x57, 0x5e, 0x96, 0xbd, 0x9a, 0x12, 0x53, 0x3e, 0xfc, 0xb, 0x6d, 0xbd, 0xf1, 0x57, 0xfe, 0x3c, 0x15, 0x5c, 0x74, 0xbd, 0x5c, 0x1e, 0x49, 0x3d, 0x99, 0x1d, 0xe7, 0xbd, 0x5f, 0x69, 0xa, 0xbe, 0x36, 0xb3, 0x12, 0xbb, 0xd2, 0x3c, 0xa0, 0xbb, 0x8d, 0x2a, 0x1d, 0xbe, 0x8f, 0xff, 0x31, 0x3d, 0x1a, 0x8d, 0x9b, 0xbd, 0xdf, 0x77, 0xdb, 0x3d, 0x5d, 0x9d, 0x91, 0xbd, 0x6c, 0xf1, 0x27, 0x3c, 0xee, 0x93, 0x9c, 0xbd, 0xe4, 0x84, 0xe, 0xbe, 0x3e, 0xca, 0x2f, 0xbd, 0x7a, 0xf4, 0xc3, 0x3c, 0xd5, 0x8f, 0x1, 0x3e, 0x43, 0xe5, 0x55, 0x3e, 0x9c, 0x39, 0xb, 0x3e, 0x87, 0x79, 0xcc, 0x3d, 0x17, 0x43, 0xfb, 0x37, 0xac, 0x8e, 0x77, 0xbc, 0x8e, 0xd, 0xd1, 0xbc, 0x99, 0xd3, 0xcb, 0xbd, 0xc7, 0xb9, 0x3e, 0xbd, 0xef, 0x70, 0x3b, 0xbd, 0x61, 0xb7, 0x9e, 0xbd, 0xd, 0xbc, 0x90, 0x3c, 0x24, 0x18, 0x4a, 0xbe, 0x1e, 0xb2, 0x1e, 0xbe, 0x7d, 0x74, 0xd4, 0x3c, 0x83, 0x9f, 0xa3, 0xbd, 0xba, 0x2, 0x51, 0x3e, 0x54, 0xc6, 0x44, 0x3b, 0xe, 0xe3, 0x35, 0xbc, 0x14, 0x80, 0xbb, 0xbd, 0x5a, 0x8c, 0x3d, 0x3d, 0xae, 0xac, 0x13, 0x3c, 0x72, 0x1b, 0x9f, 0xbd, 0xf5, 0xae, 0x9f, 0xbd, 0x9, 0xe4, 0x1e, 0xbe, 0xc8, 0x30, 0x8, 0x3e, 0x6, 0x59, 0xb5, 0xbd, 0xed, 0x7d, 0x6c, 0x3e, 0x62, 0xc5, 0x30, 0xbe, 0xf3, 0xa7, 0xe, 0x3e, 0xc0, 0x77, 0x5b, 0x3e, 0xa1, 0x98, 0x99, 0x3d, 0xde, 0x11, 0x3f, 0x3e, 0x2a, 0x47, 0x2d, 0x3d, 0x8d, 0x43, 0xf6, 0x3c, 0xce, 0x11, 0xd0, 0xbc, 0xd9, 0x8c, 0xa0, 0x3d, 0xe, 0x4f, 0x69, 0xbd, 0x50, 0x85, 0xe3, 0xbc, 0x3e, 0x9e, 0xca, 0x3d, 0x4b, 0x97, 0x1f, 0xbe, 0xd0, 0x7f, 0xe, 0x3d, 0x55, 0xbf, 0x8c, 0xbc, 0x71, 0x99, 0x54, 0xbd, 0x49, 0xbb, 0xa4, 0x3d, 0x4b, 0xcf, 0x4e, 0x3e, 0x5e, 0x80, 0xa4, 0xbc, 0x38, 0xd5, 0xd4, 0x3b, 0xf1, 0xaa, 0x2e, 0xbd, 0xeb, 0xf3, 0x87, 0xbc, 0x47, 0xd7, 0xb4, 0xbc, 0x7f, 0x59, 0xda, 0x3c, 0x28, 0xb9, 0xb3, 0xbd, 0xc6, 0xf4, 0xbd, 0xbd, 0x80, 0x59, 0x39, 0x3e, 0x66, 0x58, 0x80, 0xbb, 0x43, 0x58, 0x47, 0x3c, 0x79, 0x67, 0xc2, 0xbb, 0xf5, 0xfc, 0xe4, 0x3d, 0x5b, 0xf5, 0x3, 0x3e, 0xcf, 0xa9, 0x43, 0xbe, 0xfe, 0xcb, 0x13, 0xbd, 0xdf, 0xeb, 0x40, 0xbe, 0x9e, 0xfc, 0x8b, 0x3d, 0xf, 0x78, 0xad, 0x3d, 0xd9, 0xf8, 0x5c, 0xbc, 0x7d, 0xa4, 0x28, 0xbe, 0x91, 0x8f, 0xc5, 0x3d, 0x4a, 0x85, 0x2d, 0xbe, 0x6d, 0x60, 0x20, 0xbd, 0x75, 0x26, 0x4c, 0xbd, 0x87, 0x21, 0x67, 0x3d, 0xaa, 0x9e, 0xe0, 0xbd, 0x2d, 0x67, 0xb4, 0x3d, 0x4c, 0x33, 0xec, 0xbd, 0xc5, 0x60, 0x40, 0xbe, 0xbb, 0x16, 0xb7, 0x3d, 0xc7, 0x80, 0x8b, 0xbd, 0x57, 0x72, 0xc4, 0xbc, 0x9b, 0x66, 0x93, 0xbd, 0x70, 0xfb, 0x81, 0x39, 0x4e, 0x41, 0x83, 0x3d, 0xc4, 0x50, 0x69, 0x3d, 0xce, 0xc8, 0x58, 0x3d, 0x7d, 0x8a, 0x89, 0x3d, 0x91, 0x38, 0xd7, 0xbc, 0xc2, 0x39, 0x60, 0x3b, 0x10, 0xdd, 0x1c, 0xbe, 0x66, 0xa, 0x4f, 0x3e, 0xc, 0x6b, 0x1d, 0x3d, 0xf7, 0x43, 0xa, 0x3d, 0xca, 0x80, 0x7d, 0xbd, 0xb4, 0x98, 0x35, 0xbd, 0xff, 0x15, 0xaa, 0xbc, 0xc8, 0x81, 0x57, 0x3e, 0x5e, 0xa2, 0xa8, 0xbd, 0xbb, 0xfa, 0xc5, 0x3c, 0x2e, 0xee, 0x9e, 0x3d, 0xfb, 0xb, 0xe3, 0xbc, 0xd7, 0x94, 0x8c, 0xbd, 0x37, 0x1f, 0x28, 0x3d, 0x43, 0x40, 0x52, 0x3e, 0xff, 0x4d, 0x5c, 0xbd, 0xdc, 0x91, 0x20, 0x3e, 0x9c, 0x9e, 0x0, 0xbd, 0x1f, 0xfc, 0xa5, 0xbc, 0x1d, 0x3, 0x70, 0x3d, 0x70, 0x12, 0x0, 0xbd, 0x1, 0x1d, 0x96, 0x3d, 0x22, 0x83, 0x98, 0x3d, 0xae, 0xf6, 0xe5, 0x3d, 0x33, 0xe0, 0x46, 0xbd, 0xee, 0xa3, 0x74, 0x3d, 0xf7, 0xaa, 0x96, 0xbd, 0x34, 0xd0, 0xb8, 0xbd, 0x9f, 0xe3, 0x37, 0x3e, 0xf3, 0xd2, 0x94, 0xbd, 0x57, 0xbe, 0xe3, 0xbc, 0x98, 0xf9, 0xf9, 0x3c, 0xa, 0x73, 0x8b, 0x3d, 0x43, 0x1a, 0xda, 0x3c, 0x2d, 0x95, 0xac, 0xbc, 0x89, 0xd1, 0x1d, 0xbe, 0x8b, 0x5b, 0x57, 0x3c, 0x6e, 0x1a, 0xee, 0xbd, 0x72, 0x5a, 0x77, 0x3d, 0x46, 0xbb, 0xbd, 0xbd, 0x37, 0x99, 0x84, 0x3d, 0x2a, 0xad, 0xf0, 0x3c, 0x1a, 0x9b, 0x3d, 0x3d, 0x5d, 0xb7, 0x49, 0xbd, 0x5b, 0x6a, 0x36, 0x3e, 0x47, 0x68, 0xed, 0x3d, 0x64, 0xd6, 0x7f, 0xbc, 0x67, 0x5a, 0xe9, 0x3d, 0xb9, 0xb0, 0x73, 0x3c, 0x5c, 0x4, 0xe1, 0x3d, 0x51, 0xc8, 0xd2, 0x3c, 0x2a, 0xd3, 0xb5, 0x3c, 0x13, 0x93, 0xce, 0x3d, 0x92, 0x5a, 0x29, 0x3d, 0xf6, 0x4b, 0xa9, 0xbd, 0x77, 0x74, 0x96, 0xbd, 0x45, 0xe5, 0x33, 0x3d, 0x60, 0x73, 0x63, 0xbd, 0xce, 0x23, 0xf7, 0x3b, 0x2f, 0xc, 0xa9, 0xbd, 0x3e, 0xca, 0x9a, 0x3c, 0x10, 0x45, 0xc0, 0x3d, 0x52, 0xc9, 0xd2, 0xbd, 0xab, 0x48, 0x8f, 0xbd, 0xb2, 0xf3, 0x96, 0xbd, 0x9f, 0x35, 0x35, 0x3d, 0xf4, 0x8, 0xc0, 0x3c, 0xbf, 0xc6, 0x3c, 0xbc, 0x33, 0x37, 0x20, 0x3b, 0x12, 0xc8, 0x17, 0x3e, 0x83, 0xbb, 0x29, 0x3e, 0x99, 0x99, 0xc0, 0xbc, 0xa4, 0x1e, 0x8e, 0xbd, 0x91, 0x8a, 0x3e, 0xbe, 0x69, 0x7e, 0xd2, 0x3b, 0x4c, 0x61, 0x2c, 0xbd, 0x77, 0xe7, 0x4d, 0x3e, 0x50, 0xc3, 0xde, 0xbd, 0xb8, 0x8b, 0x11, 0x3e, 0xd2, 0xd8, 0x8c, 0xbc, 0x60, 0x30, 0x23, 0x3e, 0xeb, 0xec, 0x1a, 0xbd, 0xcc, 0xbe, 0x1f, 0xbd, 0x2c, 0xb, 0x1d, 0xbd, 0x31, 0x4d, 0x92, 0x3d, 0x17, 0x92, 0x31, 0xbe, 0x74, 0xbf, 0x88, 0x3c, 0xbe, 0xd1, 0x4, 0x3e, 0x14, 0x7f, 0xe9, 0xbd, 0x42, 0x2b, 0x7, 0xbd, 0xd1, 0x5a, 0x8, 0x3d, 0x42, 0x27, 0xac, 0x3c, 0xca, 0x6, 0x70, 0x3c, 0x45, 0x23, 0x22, 0x3d, 0x58, 0x65, 0xb6, 0xbc, 0x5e, 0x2b, 0xea, 0xbd, 0xc3, 0xaf, 0xd8, 0xbd, 0x69, 0xb, 0xb9, 0x3e, 0xe1, 0x17, 0x71, 0xbc, 0x55, 0xd9, 0x4b, 0xbe, 0x33, 0xa0, 0x7, 0x3e, 0x3f, 0xca, 0x93, 0xbd, 0x25, 0xb5, 0xbe, 0x3d, 0xc7, 0x35, 0x10, 0x3f, 0x84, 0x9d, 0xf6, 0xbd, 0xc8, 0x5e, 0x87, 0xbd, 0xb4, 0x49, 0x9a, 0x3c, 0xd4, 0xc8, 0x39, 0x3e, 0x7b, 0xb9, 0x46, 0xbd, 0xd2, 0x7d, 0x92, 0x3e, 0xb4, 0xed, 0x2a, 0xbe, 0x15, 0x58, 0x8, 0xbe, 0x99, 0x99, 0xd3, 0x3d, 0x6e, 0x28, 0xc4, 0x3d, 0x72, 0x82, 0x7, 0xbe, 0x13, 0x6a, 0xab, 0x3d, 0x9d, 0xf0, 0x7, 0x3e, 0x7d, 0xb8, 0x78, 0xbd, 0xca, 0x2f, 0xa1, 0xb9, 0xd1, 0xab, 0xa3, 0x3e, 0x9b, 0xa3, 0x1, 0x3d, 0x69, 0x5f, 0xd3, 0x3d, 0x31, 0x4, 0x86, 0x3d, 0x6d, 0xce, 0x52, 0xbd, 0x79, 0x49, 0xb7, 0xbb, 0x66, 0x6d, 0xfe, 0x3d, 0x9f, 0xbf, 0x5c, 0xbe, 0x3, 0x57, 0x0, 0x3d, 0xff, 0x83, 0xab, 0xbd, 0xbd, 0xe3, 0x78, 0xbe, 0x87, 0xd, 0x44, 0xbe, 0xef, 0x43, 0xd0, 0x3e, 0x78, 0xfb, 0x6e, 0x3d, 0xd5, 0x23, 0x67, 0xbd, 0xb8, 0x9f, 0xe6, 0x3c, 0xb9, 0x50, 0xee, 0xbd, 0xd1, 0xd7, 0xed, 0x3d, 0x1f, 0xaf, 0xa6, 0x3e, 0xcb, 0x52, 0xde, 0xbd, 0xc2, 0x36, 0x9c, 0xbe, 0xac, 0x89, 0x80, 0x3d, 0x5c, 0xd9, 0xee, 0xbc, 0xf2, 0x7, 0x84, 0x3c, 0x43, 0x3, 0x91, 0x3e, 0xf, 0x4e, 0x81, 0xbe, 0x2d, 0xfa, 0xc8, 0xbe, 0xca, 0x66, 0xda, 0xbd, 0xd2, 0x4d, 0xba, 0x3d, 0x33, 0xbf, 0x6, 0xbd, 0x82, 0x70, 0xc4, 0x3e, 0xe, 0x35, 0x8f, 0xbe, 0x47, 0xab, 0xb7, 0xbe, 0x22, 0x17, 0x29, 0x3e, 0xcd, 0x56, 0xc3, 0x3d, 0x9f, 0xfc, 0xa7, 0x3d, 0x89, 0x3c, 0x64, 0xbe, 0x18, 0x66, 0x9, 0xbc, 0xc9, 0x9b, 0x24, 0xbf, 0xbc, 0x8a, 0x2d, 0x3c, 0x8d, 0x6f, 0x33, 0x3e, 0x9, 0x0, 0x9, 0xbe, 0xef, 0x95, 0x33, 0xbe, 0xa0, 0x2c, 0x92, 0x3b, 0x37, 0x55, 0x2d, 0xbf, 0x47, 0x20, 0xba, 0x3d, 0xb, 0x93, 0xba, 0xbd, 0xf0, 0x2d, 0x94, 0x3c, 0xb, 0x7, 0x93, 0xbd, 0x4, 0x4c, 0x5f, 0x3e, 0x57, 0x74, 0x62, 0xbf, 0xcf, 0x38, 0xd2, 0x3d, 0xef, 0x30, 0x33, 0x3d, 0x3d, 0xf3, 0xc5, 0x3d, 0xb2, 0xcd, 0x11, 0x3d, 0x97, 0x1b, 0x9d, 0x3e, 0xb0, 0x99, 0xe7, 0xbe, 0x4a, 0x11, 0xa3, 0x3d, 0xe8, 0xc0, 0x3d, 0x3d, 0xa4, 0x58, 0x7a, 0xbe, 0x2b, 0x3d, 0x91, 0x3e, 0x78, 0xed, 0x8f, 0x3e, 0x8f, 0xb8, 0xbf, 0xbe, 0x27, 0x8d, 0x8f, 0xbc, 0x4a, 0x83, 0xe3, 0x3c, 0x5, 0xce, 0xcf, 0xbd, 0xd7, 0x8c, 0x5d, 0x3d, 0xca, 0xbb, 0xe, 0x3e, 0x9, 0x4f, 0xa3, 0xbe, 0x9e, 0x1d, 0xfd, 0x3c, 0x53, 0x2d, 0x72, 0x3d, 0xcc, 0x46, 0x94, 0x3d, 0xbe, 0x53, 0xc3, 0xbd, 0x3, 0xe0, 0xf, 0xbc, 0x20, 0xbf, 0x33, 0xbd, 0xb9, 0xb5, 0x3, 0xbd, 0xb4, 0x86, 0x2d, 0xbd, 0xd, 0xe2, 0x18, 0xbc, 0xf1, 0x83, 0xb5, 0x3d, 0x60, 0xe, 0x2d, 0xbe, 0x2d, 0x79, 0xb9, 0x3d, 0xc7, 0x54, 0x54, 0xbd, 0x45, 0x3e, 0xa5, 0x3d, 0x5, 0xc3, 0x9, 0x3e, 0x6b, 0x5, 0x88, 0xbd, 0x80, 0xc6, 0xd4, 0xbc, 0x75, 0x3, 0x22, 0xbe, 0xd5, 0x49, 0xbf, 0x3d, 0xdd, 0x37, 0x7f, 0xbd, 0xce, 0x13, 0x61, 0xbd, 0x97, 0x4c, 0x8c, 0xbd, 0x80, 0xfe, 0x1e, 0x3d, 0x3d, 0xa8, 0x39, 0xbd, 0xe3, 0x62, 0x8d, 0xbc, 0xec, 0xcd, 0x2e, 0xbe, 0x8f, 0x48, 0xc3, 0x3d, 0x4a, 0xea, 0xaf, 0x3d, 0xca, 0x9f, 0x1a, 0x3e, 0x76, 0xed, 0x43, 0xbc, 0x6, 0x58, 0xf6, 0x3d, 0x9d, 0x60, 0xe4, 0xbd, 0xed, 0xc7, 0xec, 0x3c, 0xf7, 0x99, 0xd1, 0x3d, 0x6d, 0xe, 0x11, 0x3d, 0xd, 0x9e, 0x23, 0xbd, 0x1, 0xd8, 0x72, 0x3d, 0xb9, 0x38, 0xa4, 0xbd, 0x51, 0xc1, 0xd5, 0x3c, 0x65, 0xff, 0xd9, 0xbc, 0x8e, 0x32, 0x61, 0x3d, 0x96, 0x73, 0x5c, 0xbd, 0x6, 0xfe, 0xb2, 0x3d, 0x6e, 0xde, 0xa3, 0xbc, 0xaf, 0xa4, 0xd2, 0xbc, 0x2e, 0x27, 0xc2, 0x3d, 0xeb, 0xa4, 0xa1, 0xbd, 0x1a, 0x6d, 0x80, 0x3d, 0x4b, 0x78, 0xd2, 0xbd, 0x88, 0xf3, 0x66, 0xbc, 0x5e, 0x5d, 0xa0, 0x3d, 0xcb, 0xa6, 0x3d, 0x3e, 0x2b, 0xf3, 0x9a, 0x3c, 0xe3, 0x6a, 0xa7, 0x3d, 0xed, 0x9d, 0xb, 0xbe, 0xc9, 0x6f, 0x34, 0x3d, 0x74, 0xf5, 0x9c, 0xbd, 0xa2, 0x5c, 0x1, 0xbe, 0xf9, 0xcf, 0xd1, 0xbd, 0x74, 0x1, 0xbd, 0xbd, 0xc, 0x17, 0x42, 0xbe, 0x61, 0x11, 0x4, 0xbe, 0x89, 0x2d, 0x1d, 0x3e, 0x17, 0xd3, 0x6, 0xbe, 0x51, 0xc1, 0x8, 0xbe, 0x22, 0x5a, 0xa5, 0xbd, 0x6f, 0x28, 0xe4, 0x3d, 0x2a, 0xf9, 0xb1, 0xbd, 0xc9, 0xeb, 0xad, 0xbc, 0xac, 0xda, 0xb4, 0xbd, 0xf3, 0x3d, 0x55, 0xbe, 0x45, 0x5b, 0x90, 0x3d, 0xd, 0x8, 0xed, 0xbd, 0x37, 0x2d, 0x31, 0x3d, 0x3f, 0x65, 0x28, 0xbd, 0x2f, 0x5b, 0x12, 0x3d, 0x4f, 0x6d, 0x96, 0xbe, 0xf8, 0x72, 0x1, 0x3d, 0xa2, 0x21, 0xba, 0xbd, 0x41, 0x2e, 0x67, 0xbc, 0x65, 0xe7, 0x1, 0xbc, 0x88, 0x20, 0x75, 0x3e, 0x69, 0x22, 0xa2, 0xbd, 0xae, 0xcc, 0xbd, 0x3d, 0xc7, 0x96, 0x5a, 0xbe, 0x9f, 0x8a, 0x9f, 0xbd, 0x17, 0xf8, 0x93, 0x3d, 0x4a, 0x4f, 0xa5, 0x3e, 0xb, 0x1f, 0x92, 0xbd, 0xd5, 0x8e, 0xc5, 0x3d, 0xae, 0x10, 0xf4, 0xbc, 0xc5, 0x9a, 0xa, 0xbe, 0xbf, 0xe6, 0xc8, 0x3d, 0x83, 0x39, 0xb, 0x3e, 0xaf, 0xce, 0x3f, 0x3d, 0x24, 0x45, 0x27, 0x3e, 0x8d, 0x45, 0x34, 0x3e, 0x41, 0x37, 0x3, 0x3e, 0x82, 0x36, 0xee, 0xba, 0x9, 0x31, 0x3b, 0x3e, 0xf8, 0xb1, 0xea, 0xbd, 0x9f, 0x6d, 0x51, 0xbd, 0x7c, 0x2, 0x7b, 0xbd, 0x21, 0x3f, 0x29, 0xbd, 0x1, 0x57, 0x84, 0x3d, 0x7a, 0x5a, 0xa5, 0x3e, 0x89, 0x76, 0x14, 0xbe, 0xb3, 0xf2, 0x8b, 0x3d, 0x8, 0x7a, 0x69, 0x3d, 0x65, 0xa8, 0x23, 0xbe, 0xd0, 0x48, 0xa6, 0xbd, 0x6c, 0x95, 0x98, 0x3e, 0xde, 0x23, 0x63, 0xbd, 0x1f, 0x8b, 0x31, 0x3e, 0xbc, 0xcc, 0xd0, 0x3d, 0x26, 0x3d, 0xcd, 0x3d, 0x94, 0x2f, 0x9e, 0xbd, 0x21, 0xa2, 0x5f, 0x3e, 0xd1, 0xa7, 0xd6, 0x3d, 0xf3, 0x16, 0x28, 0xbe, 0xad, 0x97, 0xc3, 0xbb, 0xd9, 0xa7, 0xf8, 0xbd, 0x59, 0x67, 0x65, 0x3d, 0xf7, 0xe3, 0xc4, 0x3d, 0xc1, 0x5b, 0x21, 0x3c, 0x56, 0xf5, 0x8, 0x3e, 0x47, 0x71, 0x2, 0x3e, 0xf0, 0x58, 0xdc, 0x3c, 0x4b, 0x1, 0x6e, 0xbd, 0x45, 0x18, 0xc9, 0x3c, 0xda, 0x0, 0xd9, 0x3c, 0xe5, 0x99, 0xe8, 0x3c, 0xd8, 0xc0, 0x83, 0x3d, 0x43, 0xeb, 0xa1, 0xbb, 0xdc, 0x8, 0xbf, 0xbd, 0x75, 0x4d, 0x9b, 0xbc, 0xc6, 0x9e, 0xa7, 0xbd, 0xc2, 0x63, 0xe, 0xbe, 0xfa, 0x26, 0x33, 0xbe, 0xfe, 0x3b, 0x26, 0x3e, 0xfb, 0x90, 0xc7, 0x3c, 0xc9, 0x3f, 0x92, 0x3d, 0xf8, 0xb2, 0xe0, 0x3d, 0xf0, 0x81, 0xd5, 0xbc, 0x1d, 0x3a, 0x41, 0x3e, 0xba, 0x55, 0x52, 0x3e, 0x5, 0xa2, 0x76, 0xbe, 0x6, 0x18, 0x90, 0x3b, 0x32, 0xdc, 0x4f, 0xbc, 0xb, 0xd6, 0x52, 0x3d, 0x3c, 0x9, 0x48, 0x3b, 0x42, 0xe4, 0xbe, 0x3b, 0xda, 0x49, 0x38, 0xbd, 0xc8, 0x66, 0xde, 0x3c, 0x1e, 0xeb, 0xf9, 0x3d, 0xc9, 0x34, 0x15, 0x3c, 0xf5, 0xb6, 0x28, 0x3c, 0x6, 0xd7, 0x33, 0xbc, 0xa, 0x97, 0x61, 0x3d, 0xb, 0xb0, 0x3, 0xbe, 0xb8, 0xb6, 0x77, 0x3d, 0x2b, 0xb1, 0x43, 0xbe, 0x3f, 0x6a, 0xcb, 0x3d, 0x3c, 0x64, 0xf0, 0x3a, 0xff, 0x23, 0x84, 0xbd, 0x57, 0xb3, 0x20, 0xbd, 0xc5, 0x59, 0x8, 0x3e, 0x80, 0xca, 0xfd, 0x3c, 0x22, 0x49, 0x71, 0xbd, 0x97, 0xcb, 0x7, 0x3e, 0xfe, 0xb2, 0xa, 0xbe, 0x85, 0xec, 0x61, 0x3e, 0xec, 0x17, 0x7, 0x3d, 0x36, 0x66, 0x2a, 0x3e, 0xdd, 0xa2, 0x95, 0x3d, 0x19, 0x9, 0x55, 0xbd, 0x66, 0xf3, 0x86, 0xbd, 0x92, 0x64, 0x12, 0x3d, 0xbf, 0x1c, 0x8d, 0xbd, 0x4, 0x37, 0x88, 0xbc, 0xc5, 0x57, 0x58, 0xbd, 0x57, 0x4f, 0xd7, 0xbc, 0x2, 0x8d, 0xa1, 0xbd, 0xda, 0x91, 0xf9, 0xbd, 0x2a, 0x18, 0x7, 0xbe, 0x53, 0x15, 0x70, 0x3c, 0x8f, 0xda, 0x82, 0xbc, 0x39, 0x14, 0x1b, 0x3e, 0xf4, 0xf1, 0xfb, 0x3c, 0xa4, 0xc0, 0x56, 0x3e, 0x39, 0xf7, 0x8a, 0xbd, 0x25, 0x78, 0x64, 0xbd, 0x89, 0x1d, 0xf, 0x3c, 0x13, 0x4b, 0xd8, 0x3d, 0x8f, 0xeb, 0x2f, 0xbe, 0x2d, 0xa3, 0x53, 0x3c, 0xe, 0xac, 0xcc, 0x3d, 0xc3, 0x1, 0x2, 0x3e, 0xea, 0x16, 0x27, 0xbd, 0x83, 0x50, 0x65, 0xbc, 0x1f, 0x8b, 0x34, 0x3d, 0x21, 0x0, 0x9, 0x3d, 0xa5, 0xde, 0x84, 0x3d, 0xcf, 0xa7, 0x71, 0xbe, 0x96, 0xe5, 0x19, 0x3d, 0x90, 0xd4, 0xf2, 0x3d, 0x3c, 0xa0, 0x37, 0x3d, 0x9f, 0xe6, 0x3d, 0x3e, 0xe, 0x5c, 0xa, 0x3d, 0x2c, 0xc6, 0xb9, 0x3d, 0x7d, 0x37, 0x19, 0x3d, 0x45, 0x44, 0xc3, 0xbd, 0x8, 0x74, 0x6e, 0xbd, 0x67, 0xc2, 0x57, 0x3e, 0x49, 0xed, 0x80, 0xbd, 0x54, 0x9b, 0xb4, 0x3d, 0xc1, 0x6c, 0x18, 0x3e, 0xd9, 0x7c, 0xe1, 0x3d, 0x79, 0x7b, 0x3b, 0xbe, 0xdd, 0xb8, 0x82, 0xbd, 0xcb, 0xe8, 0x76, 0xbe, 0xc4, 0x6, 0xa8, 0x3e, 0x4e, 0x4b, 0x2a, 0x3e, 0x89, 0xc1, 0xdc, 0xbd, 0xab, 0x13, 0xeb, 0x3d, 0xed, 0x22, 0x76, 0x3c, 0x3c, 0x9, 0x1, 0xbe, 0xf1, 0x3b, 0xb4, 0x3e, 0xf1, 0x25, 0x2f, 0x3d, 0xa3, 0xaf, 0xa0, 0x3c, 0xbc, 0x34, 0x6f, 0xbd, 0xc7, 0x51, 0xad, 0xbd, 0x98, 0x1, 0x52, 0xbe, 0x60, 0xc9, 0xdf, 0x3d, 0x6b, 0x7a, 0x9a, 0xbd, 0x31, 0x48, 0xe3, 0xbd, 0x85, 0x87, 0x51, 0xbc, 0xc5, 0x73, 0x22, 0x3e, 0x67, 0x8f, 0x45, 0xbe, 0x9c, 0xbb, 0x9d, 0x3e, 0xcc, 0xd4, 0x59, 0x3c, 0xd8, 0xe2, 0xaa, 0x3d, 0x58, 0xa8, 0xe6, 0x3d, 0xf2, 0xd8, 0xfc, 0x3d, 0xc7, 0xb2, 0x85, 0xbe, 0x35, 0x90, 0x23, 0x3e, 0xfb, 0x75, 0xa1, 0x3c, 0x9, 0xcd, 0x89, 0x3d, 0xc, 0x72, 0x1c, 0xbe, 0xf6, 0x3e, 0x82, 0xbc, 0xd8, 0xb6, 0x1b, 0xbe, 0x4d, 0x3, 0xc2, 0x3e, 0xb1, 0x4a, 0x50, 0xbe, 0xe7, 0x25, 0x7, 0x3d, 0x8f, 0xbd, 0x56, 0xbc, 0x48, 0x9, 0x87, 0x3d, 0x37, 0x28, 0xb6, 0x3d, 0x17, 0x54, 0x3f, 0x3e, 0x1d, 0x48, 0x15, 0xbd, 0xc7, 0xd7, 0xc, 0xbe, 0xcf, 0xd7, 0x70, 0x3d, 0x61, 0x5b, 0x9b, 0x3d, 0xfc, 0xa4, 0x92, 0xbd, 0xbf, 0x5d, 0x8d, 0x3b, 0xe2, 0x64, 0xe0, 0x3d, 0xac, 0x3a, 0x41, 0xbd, 0x1f, 0xd, 0x3, 0x3e, 0x2, 0x2e, 0x22, 0x3e, 0x2, 0x85, 0x4, 0x3e, 0x54, 0xdb, 0xde, 0x3c, 0x11, 0x55, 0xf8, 0x3d, 0x68, 0x82, 0xb9, 0x3d, 0xf4, 0x6c, 0x2b, 0x3e, 0x8e, 0xfb, 0x3, 0x3d, 0x51, 0x79, 0xf5, 0xbc, 0xc4, 0xc9, 0x90, 0xbe, 0xe1, 0x59, 0x90, 0xbc, 0x9f, 0x33, 0x5, 0xbc, 0x4a, 0xe6, 0x31, 0x3d, 0xb5, 0x5a, 0xc9, 0x3c, 0x57, 0xe3, 0x20, 0x3e, 0xa1, 0x29, 0x9f, 0xbe, 0x8a, 0xac, 0x17, 0xbd, 0x9b, 0xf0, 0xd7, 0x3d, 0x33, 0x50, 0xa, 0xbd, 0x7b, 0x91, 0x77, 0x3c, 0xfe, 0x58, 0x1b, 0x3e, 0xfb, 0xa1, 0xc2, 0xbe, 0xcb, 0xc, 0x10, 0x3e, 0x46, 0x32, 0x7, 0x3e, 0xe, 0x7b, 0xbd, 0xbc, 0x26, 0xa0, 0xdf, 0x3c, 0x7d, 0x8f, 0x3f, 0x3e, 0x20, 0x6, 0x4, 0xbf, 0x8f, 0xd0, 0xe3, 0x3c, 0x49, 0x85, 0xab, 0x3d, 0x9e, 0x8f, 0x60, 0xbd, 0x27, 0xf0, 0x74, 0xbd, 0x15, 0xfd, 0xf3, 0x3d, 0x96, 0xde, 0x8d, 0xbe, 0x46, 0xdd, 0x26, 0x3d, 0xb8, 0xdc, 0xe5, 0xbd, 0xd2, 0x2c, 0x6, 0x3e, 0xe, 0xf6, 0x68, 0x3e, 0x45, 0x87, 0x15, 0x3d, 0xa3, 0x87, 0x22, 0xbd, 0xd, 0x88, 0x2b, 0xbe, 0xb2, 0xf2, 0x30, 0x3d, 0x5f, 0x48, 0xdd, 0xbd, 0xa8, 0xe5, 0xb2, 0x3d, 0xec, 0x1, 0xfc, 0x3d, 0xa9, 0x73, 0x16, 0x3d, 0xc9, 0xd0, 0xcf, 0x3d, 0xae, 0x56, 0xe7, 0x3d, 0xfc, 0x51, 0xc7, 0x3d, 0x4d, 0x69, 0xc4, 0x3d, 0x27, 0xe4, 0x60, 0xbc, 0xe9, 0x10, 0xf8, 0xbd, 0xad, 0x14, 0xe5, 0x3c, 0xa0, 0x19, 0xaf, 0x3d, 0xe6, 0x4b, 0x3a, 0x3c, 0x75, 0xb5, 0x40, 0xbe, 0x45, 0x32, 0x8, 0xbe, 0xfd, 0x23, 0xf3, 0xbc, 0xe4, 0x34, 0x70, 0xbd, 0x8a, 0xe5, 0xa3, 0x3d, 0x7, 0xa7, 0x88, 0xbd, 0x21, 0x91, 0xac, 0xbd, 0x2, 0x9c, 0x7e, 0x3e, 0xf7, 0x68, 0xc2, 0x3b, 0x8b, 0xdf, 0x13, 0xbe, 0xcf, 0x93, 0x58, 0xbe, 0xf7, 0xa, 0x98, 0xbd, 0x2b, 0x1d, 0x6a, 0x3c, 0xd8, 0xa0, 0x16, 0xbe, 0x56, 0x64, 0xd6, 0x3d, 0x9b, 0x68, 0x23, 0x3e, 0xf0, 0xa3, 0x63, 0xbd, 0xf3, 0xfa, 0xc1, 0x3a, 0xc3, 0x4f, 0x98, 0x3d, 0x84, 0x67, 0xc9, 0x3c, 0x56, 0x60, 0x62, 0x3d, 0xaa, 0xcf, 0xe5, 0x3d, 0xf5, 0x27, 0x34, 0xba, 0x60, 0x81, 0x4a, 0x3d, 0x23, 0x95, 0xec, 0xbd, 0xf7, 0xbe, 0x33, 0x3d, 0xbc, 0xb7, 0x3d, 0x3c, 0xa3, 0x0, 0x64, 0x3a, 0x59, 0xe7, 0xac, 0x3d, 0x6, 0xde, 0x69, 0x3d, 0x95, 0x2b, 0x6b, 0x3c, 0x22, 0xbf, 0xa8, 0xbd, 0x9d, 0x8e, 0x72, 0xbe, 0x4, 0xca, 0x3a, 0xbd, 0xb7, 0x92, 0x9c, 0xba, 0x61, 0xa6, 0xe3, 0x3d, 0x40, 0xeb, 0x1b, 0x3e, 0xa5, 0x6, 0xfa, 0x3d, 0xa2, 0x49, 0x18, 0xbe, 0x45, 0xf8, 0xe, 0xbd, 0x34, 0x44, 0x15, 0xbd, 0x89, 0x80, 0x32, 0xbd, 0x2, 0x55, 0xb1, 0x3d, 0x56, 0x4e, 0xd, 0xbe, 0xe0, 0xca, 0xdd, 0x3c, 0xef, 0xac, 0xc, 0xbe, 0x4d, 0x7a, 0xb, 0xbd, 0x50, 0x2b, 0x91, 0xbd, 0xf3, 0x4c, 0xd, 0xbc, 0xa7, 0x99, 0x74, 0x3d, 0x44, 0xfd, 0x5, 0x3d, 0x29, 0xa7, 0x4b, 0xbd, 0xf2, 0x65, 0x53, 0x3d, 0xad, 0xd6, 0x8, 0xbe, 0xd1, 0x93, 0xff, 0xbd, 0xe0, 0x5a, 0x4d, 0x3d, 0x71, 0xc, 0x96, 0x3e, 0x49, 0xe8, 0x8b, 0x3d, 0x87, 0xd8, 0x2c, 0x3e, 0x38, 0x1a, 0x67, 0xbc, 0xfa, 0xdc, 0xf9, 0xbd, 0xc8, 0x81, 0x16, 0x3e, 0x5f, 0xa9, 0xba, 0x3e, 0x14, 0xf7, 0xe, 0xbd, 0x15, 0xcd, 0x2a, 0xbe, 0x8d, 0x89, 0x29, 0x3e, 0x8c, 0x62, 0x50, 0xbd, 0x3f, 0xaa, 0x54, 0x3c, 0xd6, 0x97, 0xb2, 0x3d, 0x78, 0x52, 0x1f, 0xbd, 0xc4, 0x63, 0xc5, 0x3d, 0xf6, 0xf8, 0x4b, 0xbe, 0x5a, 0xa7, 0x28, 0xbd, 0xdf, 0xa8, 0xac, 0x3d, 0xa9, 0x70, 0xd8, 0xbc, 0x1f, 0x8e, 0x46, 0xbd, 0x8f, 0xad, 0xa1, 0x3d, 0xd5, 0xc1, 0x11, 0x3e, 0xf1, 0xb0, 0x26, 0x3e, 0xc9, 0x7c, 0x4c, 0xbe, 0x45, 0x79, 0xb7, 0x3d, 0x5b, 0x6b, 0x6c, 0x3c, 0xdb, 0x87, 0xd8, 0x3c, 0xf8, 0xb4, 0x2a, 0x3c, 0xe8, 0x33, 0x36, 0x3e, 0xe7, 0x88, 0xf6, 0x3d, 0xe, 0xd9, 0xf7, 0xbd, 0xb2, 0x7c, 0x2e, 0xbd, 0xa5, 0x13, 0x19, 0xbd, 0x26, 0x21, 0x12, 0xbd, 0x92, 0x72, 0xf7, 0x3c, 0xb7, 0x9, 0x86, 0xbe, 0xce, 0x3a, 0xa0, 0xbc, 0xd0, 0xc7, 0xa5, 0xbd, 0x5e, 0x77, 0x90, 0x3c, 0x26, 0x7, 0x91, 0x3d, 0x46, 0x1f, 0x9d, 0x3d, 0xcc, 0xc6, 0x7e, 0xbe, 0x8f, 0xe6, 0x4, 0xbd, 0xfa, 0x57, 0x14, 0x3d, 0xf3, 0x78, 0xf, 0x3d, 0x51, 0x1f, 0xf, 0x3d, 0xda, 0x17, 0x6, 0x3e, 0xe3, 0xb8, 0xc4, 0xbd, 0xdb, 0xcb, 0x69, 0xbd, 0x3, 0x3c, 0xef, 0x3d, 0x8f, 0x22, 0x30, 0xbe, 0x7e, 0x3e, 0x7, 0x3e, 0xb, 0xea, 0xc2, 0xbd, 0xd1, 0x2c, 0xe, 0xbe, 0x50, 0x1f, 0x3c, 0xbe, 0x46, 0x45, 0x2e, 0xbd, 0x1c, 0xb9, 0x39, 0x3e, 0xbe, 0x91, 0x25, 0xbc, 0xe0, 0x18, 0x91, 0xbe, 0x6d, 0x1a, 0x84, 0x3d, 0x85, 0xfa, 0x5f, 0xbe, 0xd9, 0xdd, 0xa1, 0xbd, 0x49, 0xe6, 0x9d, 0x3d, 0x72, 0xb, 0x93, 0x3b, 0x6d, 0x10, 0x7d, 0xbb, 0xb0, 0xe0, 0x6d, 0xbe, 0x69, 0xcd, 0xc1, 0xbe, 0x9f, 0xac, 0x1c, 0x3d, 0x8b, 0x91, 0xa5, 0xbc, 0x71, 0x5d, 0xe4, 0x3d, 0x11, 0x7f, 0xe, 0x3d, 0x4a, 0x4e, 0xe4, 0xbd, 0xcb, 0x3f, 0xb8, 0xbe, 0xde, 0xff, 0xc2, 0x3c, 0x85, 0xf5, 0x8b, 0x3d, 0x72, 0xe1, 0x39, 0xbd, 0x4f, 0x7b, 0x58, 0x3d, 0xc0, 0x23, 0x96, 0x3e, 0x69, 0x5d, 0x5b, 0xbe, 0x22, 0x78, 0x93, 0x3d, 0x31, 0x19, 0x20, 0x3b, 0xaa, 0xa, 0xb5, 0xbd, 0xf3, 0x3, 0xfa, 0x3d, 0xd4, 0xd1, 0x93, 0xbd, 0x84, 0xb7, 0x88, 0xbe, 0xbe, 0x63, 0x3d, 0x3e, 0x61, 0xa2, 0xb8, 0xbd, 0xcb, 0x58, 0x20, 0xbe, 0x23, 0xbe, 0x6c, 0x3d, 0x36, 0xb, 0x75, 0x3c, 0x1, 0x4c, 0x3, 0xbe, 0x87, 0xa8, 0xb1, 0x3d, 0x42, 0x5b, 0x2, 0xbe, 0x18, 0x7c, 0x45, 0x3d, 0xcd, 0x7a, 0x16, 0x3d, 0x5f, 0x77, 0x26, 0x3e, 0xd0, 0xe6, 0x35, 0x3d, 0x48, 0x7c, 0x2a, 0x3d, 0x9b, 0x57, 0xfa, 0xbd, 0xb6, 0xd, 0x51, 0x3d, 0x12, 0xe6, 0x46, 0x3d, 0x24, 0x14, 0x1d, 0x3b, 0xe9, 0x2b, 0xa7, 0xbd, 0xdc, 0xdb, 0x91, 0xbd, 0x77, 0x9e, 0x7c, 0x3d, 0xf6, 0x4a, 0x6b, 0xbd, 0xa5, 0x92, 0xdf, 0xbd, 0xb0, 0x9, 0xb9, 0x3c, 0x2f, 0xaa, 0x2b, 0xbd, 0xd3, 0x85, 0xaa, 0xbd, 0xd8, 0x62, 0x7e, 0xbc, 0xda, 0x5b, 0x7a, 0x3c, 0x52, 0xd9, 0x90, 0x3c, 0x36, 0x57, 0x39, 0x3d, 0xfa, 0x8c, 0x9, 0x3e, 0xab, 0x7b, 0x72, 0x3c, 0x40, 0x54, 0x25, 0x3d, 0x35, 0x46, 0xd0, 0xbd, 0xc, 0x7f, 0xe, 0x3d, 0x96, 0x6f, 0xe7, 0xbc, 0x0, 0xa8, 0x88, 0xbd, 0x31, 0x6f, 0xf7, 0xbd, 0xbe, 0xea, 0x8, 0x3d, 0x4d, 0x42, 0xb6, 0x3d, 0x7b, 0xf6, 0x91, 0x3d, 0xf3, 0x2b, 0x3d, 0xbe, 0x15, 0x9b, 0xaf, 0x3c, 0x45, 0x22, 0xd, 0x3d, 0x9e, 0xd6, 0x90, 0x3d, 0x1, 0xeb, 0x27, 0xbe, 0x17, 0xad, 0xc2, 0x3c, 0xe1, 0x7d, 0x5c, 0xbe, 0xeb, 0xb4, 0x6, 0x3e, 0x37, 0xd8, 0x11, 0x3e, 0x98, 0xfc, 0xd0, 0x3c, 0xc0, 0xec, 0x6c, 0xbd, 0xf3, 0x76, 0xca, 0x3c, 0x34, 0x28, 0x9, 0xbe, 0xec, 0x7a, 0x4a, 0x3e, 0x82, 0x79, 0xdc, 0x3d, 0x1a, 0xed, 0xa9, 0xbc, 0xec, 0xf8, 0x10, 0x3e, 0x57, 0xec, 0x28, 0xbd, 0x38, 0xe, 0x93, 0xbb, 0xaf, 0xf8, 0x19, 0xbe, 0xb, 0xaa, 0x39, 0x3e, 0xe1, 0x22, 0xf6, 0x3d, 0x65, 0x24, 0xf2, 0xbc, 0x24, 0xa2, 0xdb, 0x3d, 0xb, 0x78, 0x6a, 0x3d, 0x56, 0xc9, 0x9e, 0x3b, 0x96, 0xf7, 0x12, 0x3d, 0xed, 0x7d, 0xbc, 0x3d, 0xc7, 0x2e, 0x8a, 0x3d, 0x3c, 0x9f, 0x48, 0xbe, 0xa1, 0xcd, 0x7a, 0xbe, 0xfe, 0xbf, 0x3f, 0x3d, 0xf8, 0x35, 0xc5, 0xbc, 0xb1, 0x25, 0xce, 0x3d, 0xa3, 0x24, 0x25, 0x3d, 0x1b, 0x98, 0xd5, 0x3d, 0x40, 0xb, 0x85, 0xbe, 0x59, 0xa7, 0x13, 0x3d, 0x81, 0xf9, 0x29, 0x3c, 0x5, 0xb1, 0x74, 0xbc, 0x6f, 0x80, 0x97, 0xbd, 0xcb, 0xdf, 0x78, 0xbd, 0x4b, 0x6d, 0x74, 0xbe, 0x8c, 0xa4, 0xc, 0x3e, 0xfd, 0x5b, 0xe8, 0x3c, 0xd5, 0xc8, 0x37, 0x3c, 0x38, 0xf9, 0x34, 0x3d, 0x3e, 0x88, 0x96, 0x3d, 0x6d, 0x6, 0xca, 0xbb, 0xa1, 0x3e, 0x33, 0xbb, 0x3d, 0x7d, 0x6c, 0x3d, 0xe5, 0x3e, 0x9e, 0xbd, 0xb2, 0xdf, 0xb, 0xbc, 0x9b, 0x2e, 0xce, 0x3d, 0xba, 0xe8, 0x87, 0xbe, 0x1d, 0x93, 0x4f, 0x3e, 0xc4, 0xa8, 0x9a, 0x3d, 0x4d, 0x95, 0xef, 0xbd, 0xe, 0x19, 0x35, 0xbd, 0xc8, 0xbc, 0xb1, 0xbc, 0x49, 0xc2, 0x31, 0xbe, 0x57, 0xb4, 0x27, 0x3e, 0x83, 0xe6, 0xb0, 0xbd, 0x7e, 0xb7, 0xe5, 0xbd, 0x4b, 0x7c, 0x87, 0xbd, 0x1e, 0x6c, 0x6, 0x3e, 0x1c, 0xe7, 0xd, 0x3c, 0xca, 0xd6, 0x81, 0xbd, 0x29, 0x6c, 0x6, 0xbd, 0xd, 0xa3, 0xc5, 0xbd, 0x6a, 0xda, 0x35, 0xbe, 0xf2, 0x8d, 0xd, 0x3e, 0x6b, 0x40, 0x80, 0x3e, 0x2d, 0x84, 0x92, 0x3e, 0x2f, 0x9a, 0xc5, 0x3d, 0x94, 0xb6, 0x18, 0xbe, 0xed, 0xd, 0xa9, 0xbd, 0xde, 0x5e, 0x42, 0x3e, 0x78, 0x21, 0x30, 0x3e, 0x66, 0xb7, 0xad, 0x3d, 0xf0, 0xb0, 0x15, 0xbd, 0x73, 0x84, 0xd, 0xbe, 0xa6, 0x24, 0xe7, 0xbd, 0x21, 0xf7, 0x1, 0x3e, 0xd8, 0x9d, 0xa, 0x3e, 0xb6, 0x9b, 0x11, 0x3d, 0x4, 0x55, 0xe6, 0x3d, 0x6b, 0xc0, 0x21, 0xbe, 0x58, 0x86, 0x2f, 0xbd, 0x74, 0xd0, 0x4f, 0xbc, 0xfb, 0x87, 0xd9, 0x3d, 0x40, 0xbd, 0x84, 0x3d, 0x48, 0x78, 0x1f, 0x3d, 0x95, 0xa3, 0x27, 0xbd, 0x27, 0x40, 0x71, 0xbd, 0xc, 0x7f, 0xea, 0xbd, 0xa4, 0xe5, 0x1c, 0x3d, 0x13, 0x28, 0x23, 0x3d, 0x2d, 0x45, 0xc4, 0xbd, 0x1f, 0xfd, 0x27, 0x3d, 0x91, 0x52, 0xfa, 0xbd, 0xaa, 0x3c, 0x90, 0xbd, 0x73, 0x6e, 0x9c, 0x3d, 0x22, 0x4a, 0x2a, 0xbd, 0xa9, 0xdb, 0xd4, 0x3c, 0xa4, 0x20, 0x25, 0xbe, 0xe1, 0xb2, 0x3, 0x3e, 0xb3, 0x7, 0x49, 0xbd, 0x4d, 0x0, 0x1d, 0xbc, 0x48, 0x38, 0x80, 0x3d, 0x32, 0x9f, 0xe7, 0x3c, 0x1d, 0x8b, 0xd, 0xbe, 0xec, 0x11, 0xc7, 0xb8, 0xfc, 0x6c, 0xc5, 0xbd, 0x70, 0x9e, 0x8b, 0xbc, 0x2c, 0x33, 0x2c, 0x3e, 0x66, 0x9e, 0xe5, 0x3d, 0xd9, 0xc3, 0x94, 0xbd, 0x6c, 0xb0, 0xa0, 0xbd, 0x78, 0xf5, 0x97, 0xbc, 0xac, 0x2c, 0x1c, 0x3e, 0x66, 0xbe, 0xf3, 0x3c, 0x76, 0xfa, 0x63, 0xbd, 0x6b, 0x6b, 0x1, 0x3b, 0x53, 0xe3, 0x40, 0x3d, 0xf3, 0x35, 0x57, 0xbd, 0x32, 0x70, 0x3d, 0xbb, 0xfb, 0x19, 0xa7, 0x3c, 0x9c, 0x51, 0xbd, 0x3c, 0x0, 0xb4, 0x19, 0xbc, 0x98, 0x1c, 0x2f, 0xbb, 0x90, 0xf7, 0x76, 0x3c, 0xe7, 0x85, 0x12, 0xbd, 0x23, 0xfc, 0x24, 0xbd, 0x8f, 0xfe, 0x9e, 0x3c, 0xd7, 0x6b, 0xcb, 0xbb, 0x33, 0x6c, 0x23, 0xbd, 0x9f, 0xad, 0x73, 0x3d, 0x7d, 0x21, 0xb7, 0xbd, 0xbb, 0xe1, 0x6d, 0xbd, 0x24, 0xff, 0x9, 0x3d, 0x4f, 0x8b, 0xbe, 0xbb, 0x3e, 0xd3, 0xa3, 0xbb, 0x6c, 0x99, 0xd5, 0x3d, 0x22, 0x3c, 0xa5, 0xbb, 0x5d, 0x89, 0x13, 0xbd, 0x5f, 0x13, 0xfb, 0xbc, 0x59, 0xaa, 0x9, 0x3d, 0xbc, 0xaf, 0x23, 0xbe, 0x7b, 0x3f, 0x4, 0x3d, 0x37, 0xb4, 0x80, 0x3d, 0xcf, 0x90, 0x2d, 0xbd, 0xa5, 0xc4, 0xcd, 0x3d, 0x9f, 0x1c, 0xea, 0xbb, 0xd1, 0xb8, 0x11, 0x3d, 0xe7, 0x6c, 0xc, 0x3d, 0x86, 0x8b, 0xa7, 0xbd, 0x1e, 0x2d, 0xcb, 0x3c, 0x8c, 0xc3, 0xa1, 0x3d, 0xe4, 0x4a, 0x87, 0xbc, 0x3b, 0x2f, 0xc7, 0x3d, 0x4d, 0xae, 0x38, 0xbe, 0xbd, 0xd2, 0x24, 0x3e, 0x29, 0x30, 0xc5, 0xbd, 0xab, 0xbf, 0xaa, 0xbd, 0x7b, 0xfc, 0xb5, 0x3c, 0x63, 0x1d, 0xb5, 0x3d, 0x1b, 0x77, 0x39, 0x3d, 0x17, 0x13, 0xc8, 0x3d, 0x47, 0xb3, 0x1b, 0xbe, 0x88, 0xba, 0x4e, 0xbe, 0xaf, 0x78, 0x8, 0xbd, 0x69, 0xfa, 0x18, 0xbd, 0x6a, 0xac, 0xf3, 0x3d, 0x56, 0x39, 0xc, 0x3e, 0xa9, 0x6c, 0x0, 0xbd, 0x8b, 0x64, 0x36, 0xbe, 0x84, 0xd6, 0x8b, 0x3b, 0x0, 0xe9, 0xee, 0x3d, 0x4e, 0x25, 0xa7, 0x3d, 0x71, 0xbe, 0x14, 0x3e, 0xd3, 0x45, 0x4, 0x3e, 0x2a, 0x22, 0xf9, 0xbd, 0x6e, 0x39, 0x65, 0xbc, 0x58, 0x8f, 0x9d, 0x3d, 0xc8, 0x12, 0x2, 0xbe, 0x7b, 0xbc, 0x74, 0x3d, 0xcd, 0xa0, 0x19, 0xbe, 0x4e, 0x6, 0xc9, 0xbd, 0x2b, 0xdc, 0x3c, 0xbc, 0x3a, 0xca, 0x6a, 0x3b, 0x87, 0x8b, 0x2f, 0xbe, 0x5c, 0x19, 0x17, 0x3d, 0x55, 0x5d, 0x41, 0x3d, 0x7, 0x6c, 0x43, 0x3e, 0xba, 0xa8, 0x6c, 0xbd, 0x18, 0xcd, 0xe8, 0xbd, 0x76, 0xc0, 0xa6, 0x3d, 0xd, 0xeb, 0xb1, 0x3b, 0xe1, 0x8e, 0xfe, 0xbd, 0x9f, 0x6f, 0x3f, 0xbe, 0xc9, 0x5a, 0x8c, 0x3c, 0x85, 0x7b, 0x15, 0xbe, 0x21, 0xb3, 0x6, 0xbe, 0xc5, 0xca, 0xf2, 0x3d, 0xfe, 0xeb, 0x6d, 0xbd, 0xf, 0x46, 0x73, 0xbd, 0xa4, 0x46, 0x17, 0xbe, 0xc, 0xb, 0x89, 0x3c, 0x36, 0x9c, 0x29, 0xbb, 0x26, 0xae, 0xce, 0x3d, 0x11, 0xd1, 0xe6, 0xbc, 0x46, 0x73, 0x39, 0xbd, 0xc4, 0x1f, 0x23, 0x3e, 0x64, 0xaa, 0x20, 0xbc, 0xbc, 0x32, 0x33, 0xbc, 0xc5, 0xf5, 0xc1, 0x3d, 0x47, 0x3c, 0x9, 0xbd, 0xa8, 0x6b, 0xce, 0x3d, 0x66, 0xe9, 0xb1, 0x3d, 0xff, 0x81, 0x33, 0x3c, 0xf1, 0x8e, 0x53, 0xbe, 0x9a, 0xd3, 0x27, 0x3c, 0x9d, 0x64, 0x8e, 0x3d, 0x3b, 0xec, 0x6e, 0xbd, 0x7f, 0x2, 0x25, 0x3d, 0xab, 0x89, 0xf1, 0x3a, 0xae, 0x15, 0x31, 0xbe, 0xa8, 0x13, 0x89, 0xbd, 0xea, 0x94, 0x65, 0xbd, 0xca, 0xc5, 0xc8, 0xbc, 0x23, 0xdb, 0x57, 0xbd, 0x57, 0x83, 0x9c, 0x3d, 0x44, 0xe7, 0x6e, 0x3d, 0x9f, 0x87, 0x23, 0xbe, 0xc0, 0x4c, 0x2, 0xbe, 0x15, 0xdf, 0xad, 0x3d, 0x5b, 0xdb, 0x30, 0xbd, 0xa6, 0x2d, 0xba, 0x3d, 0xbf, 0x8f, 0xb7, 0x3d, 0xf2, 0x62, 0xd6, 0xbd, 0x9d, 0xd1, 0x25, 0xbd, 0x1d, 0xbd, 0xc, 0xbe, 0x4b, 0x95, 0xb9, 0xbb, 0xb, 0x1d, 0xf, 0x3e, 0xd5, 0xb9, 0x58, 0xbd, 0xd, 0xc1, 0xdf, 0xbd, 0xf, 0x34, 0x27, 0x3d, 0x63, 0x43, 0xb3, 0x3d, 0x21, 0xa5, 0x1b, 0x3d, 0xcf, 0xc5, 0xb0, 0x3d, 0x3c, 0x7e, 0xc3, 0xbd, 0x9a, 0xbd, 0xb9, 0x3b, 0x2f, 0xc6, 0xab, 0x3d, 0x4, 0x0, 0xb2, 0xbd, 0xa3, 0x8b, 0xc0, 0xbd, 0xbd, 0xf0, 0x3c, 0x3e, 0xb3, 0x1b, 0x1c, 0xbe, 0x57, 0xfa, 0x47, 0xbe, 0x52, 0x48, 0x89, 0x3d, 0x9e, 0x84, 0x8f, 0xbc, 0x5c, 0x58, 0x9a, 0x3d, 0xee, 0x15, 0x90, 0x3a, 0x63, 0xbd, 0x37, 0x3e, 0x55, 0xf7, 0x46, 0xbd, 0xed, 0xa5, 0x66, 0x3d, 0x2, 0x32, 0xc2, 0x3d, 0x7c, 0xc7, 0x5, 0xbd, 0xc, 0xbd, 0x41, 0xbd, 0xe1, 0xd9, 0x6b, 0x3d, 0x93, 0x35, 0x2b, 0xbe, 0xd, 0x49, 0xd2, 0x3d, 0x14, 0x58, 0x12, 0x3e, 0x86, 0x68, 0xec, 0x3c, 0xf1, 0x95, 0x80, 0xbd, 0x6d, 0xf3, 0xad, 0xbd, 0x61, 0x93, 0xd1, 0x3d, 0xfd, 0xd, 0xf0, 0x3c, 0x51, 0xff, 0x91, 0x3c, 0x90, 0xf1, 0xfb, 0xbb, 0xaf, 0x6e, 0x8d, 0xbc, 0x5b, 0xde, 0x66, 0xbd, 0xde, 0x75, 0x19, 0x3e, 0x6b, 0xd3, 0x5b, 0x3e, 0xe3, 0xd6, 0x6e, 0xbd, 0x82, 0x23, 0xe1, 0x3d, 0x46, 0xe7, 0xb9, 0x3d, 0x95, 0x25, 0xe5, 0x3d, 0x8a, 0xd7, 0x20, 0xbd, 0xf2, 0x94, 0xc8, 0x3d, 0x57, 0xb6, 0xeb, 0xbc, 0xb1, 0x8d, 0x1e, 0xbd, 0x7d, 0xd6, 0x55, 0xbd, 0xe4, 0x86, 0x7, 0xbe, 0x73, 0x35, 0xed, 0xbd, 0xb6, 0x4f, 0xef, 0x3b, 0x74, 0x78, 0xf3, 0x3d, 0x96, 0xab, 0x72, 0xbd, 0x9, 0xe1, 0x2, 0x3e, 0xb5, 0x18, 0x20, 0x3e, 0xde, 0xd6, 0x51, 0x3c, 0x3c, 0xef, 0xc9, 0xbc, 0x36, 0x7, 0x94, 0x3c, 0x1d, 0x6d, 0x44, 0x3c, 0xad, 0x61, 0x27, 0x3d, 0x96, 0xf7, 0x8e, 0xbd, 0x36, 0xa4, 0x7d, 0xbd, 0x2, 0x87, 0xc3, 0xbd, 0x2f, 0xea, 0x6, 0xbe, 0x5d, 0xfe, 0x90, 0x3d, 0x81, 0x66, 0x9c, 0x3d, 0xf7, 0x4e, 0xca, 0xbd, 0xe6, 0x29, 0x18, 0xbe, 0xb7, 0xc5, 0x8d, 0x3d, 0x72, 0x63, 0xa5, 0x3d, 0xb7, 0x54, 0x4b, 0x3e, 0x53, 0xc1, 0x32, 0xbd, 0xf4, 0xb7, 0x2c, 0xbd, 0xee, 0x6a, 0x24, 0x3e, 0xa7, 0x8d, 0xf4, 0x3d, 0xbb, 0xc9, 0xea, 0xbd, 0xc6, 0x1e, 0xd6, 0x3d, 0xb9, 0x87, 0xe1, 0xbd, 0xc4, 0xa3, 0x29, 0x3e, 0xd3, 0x3b, 0x11, 0xbd, 0x4f, 0x7e, 0x8e, 0xbc, 0x35, 0xe4, 0x3, 0xbe, 0x1f, 0x78, 0xd9, 0xbd, 0xe, 0x61, 0xcb, 0xbc, 0xf8, 0xf3, 0x54, 0x3d, 0xb9, 0xb3, 0x3a, 0x3e, 0xdd, 0xee, 0xb0, 0x3d, 0xce, 0xbe, 0x2e, 0x3e, 0x2, 0x84, 0xe6, 0xbc, 0x9d, 0xd3, 0x8f, 0x3d, 0xc0, 0xa8, 0x1b, 0xbd, 0x67, 0x84, 0x58, 0xbc, 0x97, 0x8, 0x9f, 0x3d, 0x9, 0x34, 0x6e, 0x3d, 0x52, 0x98, 0xd3, 0x3d, 0xbf, 0x8f, 0x24, 0x3e, 0x12, 0x52, 0xf, 0xbd, 0x45, 0xb0, 0x87, 0xbe, 0x82, 0xd2, 0x86, 0xbd, 0x46, 0xea, 0x92, 0xbd, 0xec, 0xfc, 0x7, 0x3e, 0x55, 0xfa, 0xaf, 0xbd, 0x61, 0x2, 0xd4, 0x3d, 0xb3, 0xdb, 0x8c, 0xbe, 0x98, 0xc4, 0x9d, 0x3d, 0x36, 0x38, 0x15, 0xbe, 0x50, 0xd7, 0x1e, 0x3e, 0x53, 0xb9, 0xfa, 0x3d, 0x4c, 0x24, 0x57, 0x3e, 0x4, 0x81, 0x8c, 0xbe, 0xf1, 0xcf, 0xab, 0x3d, 0x31, 0x55, 0xe5, 0x3d, 0x24, 0xa3, 0x26, 0xbd, 0xa8, 0x1a, 0xb7, 0xbc, 0xb5, 0xf9, 0x44, 0xbd, 0xfc, 0x75, 0xa4, 0xbd, 0x77, 0x43, 0x14, 0x3e, 0xc7, 0x91, 0x38, 0x3e, 0xc1, 0xc7, 0x18, 0x3d, 0x45, 0x51, 0xad, 0xbd, 0xed, 0x7e, 0x64, 0x3e, 0x17, 0xcd, 0x2b, 0xbe, 0xdd, 0x85, 0xf5, 0x3c, 0x79, 0x80, 0x47, 0x3c, 0xc5, 0x7a, 0xab, 0xbd, 0x32, 0x5f, 0x8a, 0x3d, 0x30, 0xb8, 0x7, 0x3e, 0xd6, 0xf1, 0x35, 0xbd, 0xa4, 0xab, 0x1b, 0xbd, 0x50, 0xd3, 0x84, 0xbc, 0x85, 0xc7, 0xac, 0x3d, 0xc4, 0x26, 0xf9, 0x3d, 0xdc, 0xed, 0x5b, 0x3d, 0xe, 0x7e, 0x2f, 0xbe, 0x85, 0xc8, 0xf1, 0x3d, 0xf8, 0xa7, 0xf2, 0x3d, 0x2d, 0x8, 0x8e, 0x3d, 0x78, 0xcf, 0xd6, 0x3d, 0xef, 0x36, 0x2a, 0x3e, 0xe9, 0x72, 0xfb, 0x3b, 0x50, 0xaa, 0x5e, 0x3e, 0x67, 0x64, 0x5e, 0x3e, 0xa9, 0xd9, 0x3f, 0x3d, 0xfb, 0xd0, 0xba, 0xbd, 0x3a, 0x2c, 0x2d, 0x3e, 0x9a, 0xae, 0x64, 0x3e, 0x9e, 0x30, 0x1d, 0x3e, 0x67, 0x5, 0x1d, 0xbe, 0x64, 0x2e, 0x4e, 0x3e, 0xaf, 0x69, 0xed, 0x3d, 0x13, 0xc3, 0xc7, 0x3d, 0xab, 0x14, 0x5c, 0x3e, 0x6a, 0x7f, 0x20, 0x3e, 0x62, 0x32, 0xb7, 0xbc, 0x5c, 0xe7, 0x64, 0x3d, 0x0, 0xbe, 0xf8, 0x3d, 0x71, 0x6, 0xf8, 0x3c, 0x6c, 0x4c, 0x16, 0x3e, 0x8c, 0x77, 0xd0, 0x3d, 0x70, 0xfc, 0x2, 0x3e, 0x7d, 0x83, 0xa0, 0xbd, 0xe9, 0x32, 0x3b, 0x3d, 0xc3, 0xf4, 0x8b, 0x3d, 0x41, 0x13, 0x24, 0x3e, 0x6f, 0xa8, 0xf4, 0x3d, 0x50, 0x45, 0x36, 0x3e, 0x44, 0x99, 0x1, 0x3c, 0x84, 0x5c, 0x75, 0x3d, 0x1c, 0x95, 0x4f, 0xbe, 0xaa, 0x9f, 0xe7, 0x3c, 0xeb, 0xad, 0x2a, 0x3e, 0x58, 0x27, 0x50, 0x3e, 0xb7, 0x6f, 0xea, 0xbc, 0x5e, 0xfc, 0x16, 0xbd, 0xc7, 0xa9, 0x9e, 0x3d, 0xa6, 0x86, 0x5f, 0x3d, 0xcb, 0x4e, 0x82, 0xbd, 0x67, 0xb9, 0xb, 0xbd, 0xd6, 0x52, 0xe1, 0xbd, 0x4d, 0xbd, 0xcb, 0x3d, 0xea, 0x14, 0x3c, 0x3d, 0xe0, 0x4, 0xb2, 0x3d, 0xf6, 0x75, 0x9b, 0xbd, 0x13, 0x3f, 0x55, 0xbb, 0x23, 0x80, 0x8e, 0x3d, 0x64, 0x9e, 0xfc, 0x3d, 0x4f, 0xee, 0x42, 0xbd, 0x25, 0xd3, 0xd3, 0x3d, 0xe0, 0xfe, 0xcd, 0xbd, 0xe3, 0xf8, 0xfb, 0xbc, 0x5c, 0x7b, 0x89, 0x3d, 0x3, 0x46, 0x60, 0x3d, 0xbd, 0xbf, 0x8f, 0xbd, 0x68, 0x15, 0xb8, 0xbb, 0x18, 0x60, 0x1e, 0xbd, 0xea, 0x4a, 0x5f, 0x3d, 0xa9, 0xc3, 0x9b, 0xbd, 0xab, 0xd, 0x39, 0xbc, 0x5f, 0x1b, 0x2, 0x3d, 0xf4, 0xfc, 0xac, 0x3c, 0xef, 0xc8, 0x24, 0xbe, 0x56, 0xb4, 0x34, 0xbd, 0x4f, 0x2f, 0x19, 0xbe, 0x78, 0x51, 0xd2, 0x3b, 0xda, 0x81, 0x69, 0x3d, 0xac, 0x74, 0xbd, 0xbd, 0x9, 0x36, 0x16, 0xbe, 0x74, 0x3e, 0x15, 0x3e, 0x31, 0xdb, 0x8d, 0xbd, 0x2a, 0xfb, 0xae, 0xbd, 0xa, 0xe4, 0x57, 0xbd, 0xb8, 0x1e, 0x3c, 0x3b, 0x38, 0xb7, 0x29, 0x3c, 0x39, 0x27, 0xe1, 0x3d, 0xfd, 0xb6, 0x86, 0x3d, 0x6d, 0xd0, 0x43, 0x3b, 0xb9, 0xfb, 0xf0, 0xbd, 0xdb, 0x45, 0xc5, 0x3c, 0x16, 0xf1, 0xaf, 0xbc, 0x70, 0x71, 0x27, 0x3c, 0x6, 0xda, 0x4a, 0x3e, 0xad, 0xfe, 0x90, 0xbd, 0xea, 0x1a, 0xbf, 0xbd, 0xfd, 0x86, 0x5c, 0x3e, 0x96, 0x14, 0x59, 0xbd, 0x16, 0x30, 0x88, 0x3d, 0xd1, 0x9, 0x4, 0xbc, 0xad, 0xf3, 0x87, 0x3d, 0x4c, 0xfc, 0xc7, 0xbd, 0x7a, 0x0, 0xec, 0xbd, 0x87, 0x28, 0x13, 0xbe, 0x2c, 0x4b, 0xfd, 0x3b, 0x82, 0xe, 0xd8, 0x3d, 0x1e, 0x5e, 0xdb, 0xbd, 0x8a, 0x78, 0x1, 0x3d, 0x14, 0x2c, 0xd8, 0xbd, 0xc5, 0x1a, 0x9f, 0xbd, 0x23, 0xf0, 0xb8, 0xbd, 0x9, 0x3d, 0xd7, 0x3c, 0xeb, 0xf7, 0x3f, 0x3d, 0x62, 0x26, 0x82, 0x3d, 0xd7, 0xfc, 0x1e, 0x3e, 0x8c, 0x2b, 0xcb, 0x3c, 0x76, 0xcf, 0x45, 0xbc, 0x4, 0xf6, 0xaf, 0xbd, 0x4c, 0xb3, 0x62, 0x3d, 0xa0, 0x8b, 0x92, 0x3c, 0xd0, 0x1f, 0x5c, 0xbd, 0xba, 0x1b, 0x55, 0xbd, 0x9a, 0x82, 0xf6, 0xbd, 0x88, 0xbb, 0x67, 0x3c, 0x73, 0x59, 0x8a, 0x3b, 0xfd, 0x19, 0xa2, 0xbd, 0xd7, 0xe1, 0xad, 0x3d, 0x63, 0x35, 0xf, 0xbe, 0xff, 0x2c, 0xd0, 0xbd, 0x5e, 0xb5, 0x6, 0xbe, 0x5a, 0x67, 0xbd, 0x3c, 0x8e, 0x23, 0x16, 0x3d, 0x47, 0xfc, 0xed, 0xbd, 0x4d, 0x16, 0x7f, 0xbd, 0xc7, 0xad, 0x63, 0x3e, 0x55, 0x23, 0x82, 0x3d, 0x8c, 0x4b, 0xd8, 0xbd, 0x4, 0xda, 0x55, 0x3e, 0xc9, 0x8f, 0xbd, 0xbc, 0xeb, 0x3, 0xd9, 0x3c, 0x54, 0x7, 0x41, 0x3e, 0x0, 0x27, 0xb5, 0xbd, 0x26, 0x9f, 0xf9, 0x3d, 0x2c, 0x4f, 0x3a, 0xbe, 0x9e, 0x4c, 0x25, 0x3d, 0x4c, 0x39, 0x25, 0x3e, 0x88, 0x8, 0x8e, 0x3c, 0xe4, 0x77, 0x32, 0x3e, 0x1f, 0x73, 0xfa, 0xbc, 0xd, 0xa, 0x91, 0xbb, 0x43, 0xd7, 0x3b, 0x3e, 0xae, 0x8e, 0x7e, 0x3d, 0xdf, 0x39, 0xd9, 0x3d, 0x5c, 0x2d, 0x2a, 0xbd, 0x6d, 0xd, 0x6b, 0x3e, 0xca, 0xf6, 0x6f, 0xbe, 0xb9, 0xad, 0x2f, 0xbc, 0xf2, 0x9b, 0xf5, 0x3d, 0xda, 0xb3, 0xb9, 0x3d, 0x2f, 0xf2, 0xf7, 0xbd, 0xcd, 0xcb, 0x3, 0x3e, 0x24, 0xeb, 0x5c, 0xbe, 0x66, 0xe6, 0x24, 0xbd, 0x89, 0x83, 0x5d, 0x3e, 0xcc, 0xfb, 0x84, 0x3d, 0x14, 0x6c, 0x13, 0x3e, 0x57, 0x41, 0x11, 0x3e, 0xf6, 0xae, 0x65, 0xbe, 0x8, 0x1, 0xd3, 0x3b, 0xe8, 0xf9, 0x8a, 0x3e, 0xed, 0x77, 0x48, 0x3e, 0x58, 0x6b, 0xe, 0x3e, 0x1d, 0x74, 0xb3, 0x3c, 0xbc, 0x50, 0xfb, 0xbe, 0xf1, 0x12, 0x5b, 0xbd, 0xfb, 0x7c, 0xdc, 0x3d, 0x97, 0x7f, 0xef, 0x3a, 0xc1, 0x7c, 0xb6, 0x3d, 0x95, 0xfd, 0x3, 0x3e, 0xb1, 0xee, 0x8e, 0xbe, 0xc0, 0xe5, 0xa9, 0xbd, 0x72, 0x7, 0xa3, 0x3c, 0xb6, 0xfe, 0x40, 0xbd, 0x46, 0x7b, 0x97, 0xbc, 0x1e, 0x8e, 0xb2, 0x3d, 0xc2, 0x14, 0xbc, 0xbe, 0x8c, 0x57, 0x1c, 0x3e, 0x46, 0x87, 0xc4, 0xbb, 0xa1, 0xa1, 0xdb, 0xbd, 0xb4, 0xa3, 0xad, 0xbc, 0x7d, 0xd6, 0xbc, 0x3c, 0x61, 0x13, 0xab, 0xbe, 0x76, 0xca, 0xcd, 0x3d, 0x59, 0xe0, 0xea, 0xbd, 0x4d, 0x21, 0xfe, 0x3b, 0x31, 0xdd, 0xf6, 0x3d, 0x23, 0xcd, 0x30, 0x3c, 0x6, 0xf3, 0x42, 0x3e, 0x3f, 0xfb, 0xed, 0x3d, 0x96, 0xb0, 0x95, 0xbb, 0xf7, 0x10, 0xac, 0xbd, 0xb5, 0x7b, 0xff, 0x3c, 0xff, 0x32, 0xce, 0x3b, 0x10, 0x4f, 0x87, 0x39, 0x49, 0x7d, 0x11, 0xbe, 0x4c, 0x6f, 0x77, 0x3d, 0xe5, 0xf3, 0x11, 0xbd, 0x43, 0x77, 0x7f, 0xbd, 0x52, 0xe3, 0x11, 0x3e, 0x6b, 0xca, 0xf1, 0xbd, 0xa6, 0x16, 0xf3, 0xbd, 0x2, 0x74, 0xe4, 0x3c, 0x82, 0xec, 0xc6, 0x3d, 0x54, 0x97, 0x9b, 0xbd, 0x29, 0xe7, 0x26, 0xbd, 0x7, 0xcb, 0x4a, 0x3d, 0x48, 0xab, 0x4b, 0xbd, 0x4d, 0xf8, 0x11, 0xbe, 0xd2, 0xd7, 0xbf, 0x3d, 0x40, 0xda, 0x15, 0xbe, 0x30, 0xb9, 0x97, 0x3d, 0xd3, 0xf, 0xd, 0x3e, 0x50, 0xbc, 0x7f, 0x3c, 0xc1, 0x94, 0xc5, 0x3c, 0xa7, 0xd8, 0x22, 0xbe, 0xfc, 0xd7, 0xfb, 0xbd, 0x13, 0x6d, 0xe7, 0xbc, 0xeb, 0x9c, 0x64, 0xbb, 0xa8, 0xe7, 0x2, 0x3e, 0xd4, 0x59, 0x34, 0x3d, 0x97, 0xda, 0x28, 0xbd, 0x50, 0xf9, 0x22, 0x3e, 0xc0, 0x21, 0x35, 0xbd, 0xad, 0xf1, 0xd6, 0xbb, 0x61, 0x87, 0x3b, 0x3e, 0xc8, 0x35, 0xe7, 0x3d, 0xdc, 0x13, 0x49, 0x3e, 0xe9, 0x85, 0x3a, 0xbe, 0x92, 0xd9, 0xac, 0x3d, 0xa6, 0xb, 0x69, 0x3d, 0x39, 0x5c, 0xf3, 0x3d, 0xf0, 0x41, 0xc8, 0x3d, 0x18, 0x4f, 0x92, 0xbd, 0x1a, 0xb6, 0x50, 0xbb, 0x1b, 0xb6, 0xe8, 0xbd, 0x6e, 0x11, 0x63, 0xbc, 0x8c, 0x19, 0x30, 0xbd, 0x62, 0xaf, 0x21, 0x3e, 0x5a, 0x5d, 0x1e, 0xbe, 0x8f, 0x78, 0xa7, 0x3c, 0x50, 0x67, 0x88, 0xbc, 0x82, 0x3b, 0x2, 0x3e, 0x7, 0xc7, 0x44, 0x3e, 0xa, 0xf3, 0x11, 0x3e, 0x5, 0x5e, 0xa, 0x3e, 0xd8, 0x4c, 0x88, 0xbd, 0x4c, 0xf1, 0x14, 0x3e, 0x68, 0x18, 0x27, 0x3e, 0x18, 0xa0, 0x14, 0x3e, 0x71, 0x4d, 0x94, 0x3d, 0x97, 0x80, 0xef, 0xbb, 0x6d, 0x98, 0x50, 0x3d, 0x3f, 0x58, 0xee, 0xbd, 0xa2, 0xf5, 0x65, 0x3d, 0x63, 0xf0, 0x2a, 0x3e, 0x42, 0x8, 0x24, 0x3e, 0xfc, 0x7a, 0xb4, 0x3d, 0x9, 0x95, 0xa2, 0xbc, 0x4a, 0xa2, 0x40, 0x3c, 0xb, 0x4a, 0x48, 0x3d, 0x65, 0xfe, 0xac, 0xbc, 0x2a, 0x75, 0x9b, 0x3d, 0xda, 0x5e, 0x56, 0xbe, 0x8e, 0x7a, 0x32, 0x3d, 0xbb, 0x3c, 0x56, 0x3c, 0x29, 0xd0, 0xe8, 0xbd, 0xff, 0xf9, 0xc2, 0x3c, 0x77, 0x78, 0xbd, 0x3d, 0xb0, 0xa4, 0x43, 0x3d, 0x66, 0xc0, 0x27, 0x3e, 0x9a, 0xdf, 0xe5, 0x3c, 0xb1, 0xe5, 0x86, 0xbd, 0x93, 0x25, 0x36, 0xbe, 0x26, 0xc5, 0x57, 0x3c, 0xd3, 0xac, 0x5d, 0xbe, 0x81, 0x62, 0xba, 0x3d, 0x59, 0x18, 0xe8, 0x3c, 0x14, 0x52, 0x6e, 0x3c, 0xfc, 0xb, 0x2c, 0xbe, 0xc1, 0xa5, 0xa0, 0xbd, 0xbe, 0xb9, 0xe0, 0x3d, 0x22, 0xf9, 0x33, 0xbe, 0x89, 0x34, 0x96, 0x3c, 0x62, 0x34, 0x11, 0x3d, 0x2f, 0x67, 0x5, 0xbe, 0xac, 0x96, 0x5e, 0xbc, 0x6, 0xe6, 0x1a, 0x3e, 0x50, 0x54, 0xb4, 0x3a, 0xda, 0xe4, 0x2f, 0x3d, 0xeb, 0xd9, 0xb9, 0xbc, 0xef, 0x1a, 0xce, 0x3c, 0xf6, 0x88, 0x1c, 0x3d, 0xbe, 0xef, 0xd6, 0xbc, 0xf2, 0xd9, 0x52, 0xbd, 0xfa, 0xa4, 0xd6, 0x3c, 0x95, 0x6c, 0x83, 0x3e, 0x6e, 0x8d, 0x3b, 0xbc, 0x53, 0x80, 0x3b, 0x3d, 0x2, 0x44, 0x22, 0xbe, 0x4b, 0x3, 0x21, 0x3e, 0xf8, 0x95, 0x74, 0x3d, 0x30, 0x33, 0x17, 0x3e, 0xcf, 0x95, 0x3c, 0x3e, 0x4a, 0x63, 0xb0, 0x3d, 0x56, 0x68, 0x6e, 0x3d, 0x39, 0x6c, 0xe1, 0xbd, 0x0, 0x92, 0xe2, 0x3d, 0x51, 0xf, 0x6b, 0x3e, 0x17, 0xbe, 0x31, 0xbd, 0x4e, 0xf2, 0xaa, 0xbd, 0x8b, 0xb8, 0x4a, 0x3d, 0xaf, 0xec, 0x91, 0x3b, 0x3b, 0x34, 0x35, 0xbe, 0x8e, 0xbd, 0x9a, 0x3e, 0x3a, 0x61, 0x9, 0x3e, 0xd3, 0xe4, 0x7, 0x3e, 0x44, 0xc1, 0x9f, 0x3d, 0x83, 0x95, 0x9c, 0xbd, 0x74, 0x5, 0x33, 0xbe, 0xb1, 0x67, 0xab, 0x3e, 0x18, 0x59, 0x2d, 0x3d, 0xc0, 0xb, 0x88, 0x3e, 0x21, 0x21, 0x90, 0x3d, 0x31, 0xf2, 0x39, 0x3e, 0xfb, 0x6a, 0xe2, 0xbd, 0xf9, 0xdc, 0x73, 0x3e, 0xef, 0xfe, 0x84, 0xbd, 0x63, 0x49, 0x98, 0x3e, 0x2, 0x17, 0xe1, 0x3d, 0xc4, 0x27, 0x1c, 0xbe, 0x1d, 0xc9, 0x8, 0xbe, 0xd4, 0x9e, 0x8d, 0xbd, 0x8a, 0x15, 0xd5, 0x3d, 0xa9, 0xab, 0x35, 0x3e, 0x1b, 0x15, 0x2a, 0x3e, 0xd8, 0xf, 0x6e, 0x3b, 0x73, 0x4a, 0xb, 0x3d, 0xbf, 0xce, 0x11, 0x3d, 0x80, 0x36, 0x69, 0x3e, 0x58, 0xa8, 0x2c, 0x3e, 0x10, 0x17, 0xe2, 0x3d, 0xb0, 0x28, 0x8, 0x3d, 0x94, 0xb8, 0x27, 0xbc, 0x3a, 0x9, 0x68, 0x3d, 0x78, 0x1f, 0xa, 0x3e, 0x95, 0x55, 0x8e, 0x3d, 0x47, 0xea, 0x4, 0xbe, 0xbd, 0xe5, 0xd4, 0xbd, 0x89, 0x60, 0x9b, 0xbd, 0x64, 0x81, 0x1b, 0xbe, 0x1e, 0x76, 0x8f, 0xba, 0x8f, 0x3f, 0x5b, 0x3e, 0xe4, 0x75, 0xc, 0x3e, 0x5b, 0x2f, 0x20, 0xbe, 0xbf, 0x9e, 0xa7, 0xbb, 0xf6, 0x7b, 0x6e, 0xbb, 0xd9, 0xb3, 0xc, 0x3e, 0x43, 0xed, 0xc, 0x3e, 0xa9, 0xc5, 0xae, 0xbc, 0x53, 0x54, 0xb5, 0x3c, 0xd9, 0x5c, 0x98, 0x3c, 0xa9, 0x3e, 0x50, 0xbd, 0xb8, 0x5c, 0x77, 0xbd, 0x16, 0x18, 0x10, 0x3e, 0xba, 0x64, 0xe9, 0xbd, 0x47, 0xad, 0x3c, 0xbd, 0x1c, 0x83, 0xb4, 0x3d, 0x22, 0x1d, 0x4a, 0xbe, 0xde, 0x53, 0x2b, 0x3e, 0x3f, 0xe3, 0xb1, 0x3d, 0x1d, 0x9d, 0x20, 0xbe, 0x2b, 0x8, 0xf8, 0x3d, 0xd8, 0xa8, 0xe2, 0xbd, 0xdb, 0xca, 0x18, 0x3e, 0x99, 0x9, 0x64, 0xbc, 0x33, 0xa0, 0xc, 0x3e, 0x96, 0x7a, 0x99, 0x3d, 0x69, 0xc7, 0xb0, 0x3d, 0x17, 0xcd, 0xaf, 0x3a, 0x41, 0xe3, 0xf6, 0x3d, 0xf5, 0xeb, 0xed, 0x3c, 0x81, 0xfa, 0x51, 0x3d, 0x9b, 0xe4, 0x65, 0x3d, 0x8f, 0x87, 0xb3, 0x3c, 0x4c, 0xc7, 0xee, 0xbc, 0xe8, 0x77, 0x29, 0x3e, 0x67, 0x9, 0x40, 0x3e, 0x6c, 0xe8, 0x73, 0x3c, 0x6c, 0x2c, 0xc1, 0x3c, 0xb1, 0xe5, 0xcb, 0x3d, 0x7c, 0xff, 0xd1, 0xbd, 0x8f, 0x98, 0xe4, 0xbd, 0x85, 0x92, 0x17, 0x3e, 0x1e, 0x79, 0x64, 0xbd, 0xea, 0x61, 0xe3, 0xbc, 0x9d, 0xad, 0x8e, 0x3d, 0x8e, 0xb0, 0xea, 0xbd, 0x65, 0x4c, 0xca, 0x3d, 0xe, 0x95, 0x93, 0x3d, 0x76, 0x8c, 0xfd, 0xbd, 0x56, 0xe2, 0x94, 0x3d, 0xd6, 0x2e, 0x4a, 0xbe, 0xeb, 0xfe, 0x95, 0xbd, 0x66, 0x77, 0x98, 0x3d, 0x1c, 0x7d, 0x3d, 0x3e, 0xa3, 0xab, 0x7b, 0x3d, 0x80, 0x77, 0x7, 0x3d, 0xe8, 0x1b, 0x7, 0xbe, 0x6b, 0x20, 0x5a, 0x3c, 0x5a, 0xcf, 0x33, 0xbe, 0x4, 0xec, 0xdb, 0x3d, 0xc6, 0xf, 0xfc, 0xbd, 0xc8, 0xe, 0xdc, 0xbb, 0x22, 0xf2, 0x90, 0x3d, 0x83, 0x9f, 0x3b, 0x3d, 0xf7, 0x80, 0x40, 0xbd, 0x83, 0x7b, 0x3e, 0x3d, 0x90, 0xb2, 0x81, 0x3c, 0x57, 0xd0, 0x25, 0x3e, 0x13, 0x3, 0xcb, 0x3b, 0xd5, 0x38, 0x68, 0xbc, 0x66, 0x35, 0x5a, 0x3d, 0xde, 0xf5, 0xe, 0x3d, 0xb3, 0x9c, 0xe9, 0x3d, 0xf0, 0x9d, 0x15, 0x3d, 0x56, 0x26, 0x8e, 0xbb, 0xde, 0xfe, 0xff, 0xff, 0x10, 0x0, 0x0, 0x0, 0x4, 0x0, 0x0, 0x0, 0x14, 0x0, 0x0, 0x0, 0x38, 0x0, 0x0, 0x0, 0x2, 0x0, 0x0, 0x0, 0x10, 0x0, 0x0, 0x0, 0x9c, 0x0, 0x0, 0x0, 0x20, 0x0, 0x0, 0x0, 0x73, 0x65, 0x71, 0x75, 0x65, 0x6e, 0x74, 0x69, 0x61, 0x6c, 0x5f, 0x31, 0x2f, 0x64, 0x65, 0x6e, 0x73, 0x65, 0x5f, 0x44, 0x65, 0x6e, 0x73, 0x65, 0x31, 0x2f, 0x4d, 0x61, 0x74, 0x4d, 0x75, 0x6c, 0x0, 0x0, 0x0, 0x0, 0x58, 0xfe, 0xff, 0xff, 0x4e, 0xff, 0xff, 0xff, 0x4, 0x0, 0x0, 0x0, 0x40, 0x0, 0x0, 0x0, 0x57, 0x88, 0x3e, 0xba, 0xcf, 0x22, 0x16, 0x3c, 0xf5, 0xe1, 0xd6, 0x3e, 0x16, 0x88, 0x84, 0x3f, 0x75, 0x19, 0xf2, 0xbd, 0x7f, 0xba, 0xe3, 0x3b, 0x2f, 0x89, 0x3c, 0x3f, 0x65, 0x9, 0x12, 0x3f, 0x17, 0x35, 0xfb, 0x3e, 0xa9, 0xef, 0x4c, 0x3b, 0x77, 0xee, 0x9d, 0x3e, 0xca, 0xd2, 0xf2, 0x3d, 0xc1, 0xe9, 0x80, 0x3f, 0xbe, 0xb0, 0x85, 0xba, 0x73, 0xaa, 0xa8, 0x3a, 0x87, 0x80, 0x98, 0x3e, 0x76, 0xff, 0xff, 0xff, 0x10, 0x0, 0x0, 0x0, 0x3, 0x0, 0x0, 0x0, 0x10, 0x0, 0x0, 0x0, 0x50, 0x0, 0x0, 0x0, 0x1, 0x0, 0x0, 0x0, 0x10, 0x0, 0x0, 0x0, 0x39, 0x0, 0x0, 0x0, 0x73, 0x65, 0x71, 0x75, 0x65, 0x6e, 0x74, 0x69, 0x61, 0x6c, 0x5f, 0x31, 0x2f, 0x64, 0x65, 0x6e, 0x73, 0x65, 0x5f, 0x44, 0x65, 0x6e, 0x73, 0x65, 0x31, 0x2f, 0x42, 0x69, 0x61, 0x73, 0x41, 0x64, 0x64, 0x2f, 0x52, 0x65, 0x61, 0x64, 0x56, 0x61, 0x72, 0x69, 0x61, 0x62, 0x6c, 0x65, 0x4f, 0x70, 0x2f, 0x72, 0x65, 0x73, 0x6f, 0x75, 0x72, 0x63, 0x65, 0x0, 0x0, 0x0, 0x4, 0x0, 0x6, 0x0, 0x4, 0x0, 0x0, 0x0, 0x0, 0x0, 0x6, 0x0, 0x8, 0x0, 0x4, 0x0, 0x6, 0x0, 0x0, 0x0, 0x4, 0x0, 0x0, 0x0, 0x10, 0x0, 0x0, 0x0, 0x75, 0x6a, 0x33, 0x3f, 0xc2, 0xc8, 0x53, 0xbe, 0x1e, 0x30, 0xaf, 0x39, 0x53, 0x1c, 0xfd, 0xbe, 0x0, 0x0, 0xe, 0x0, 0x14, 0x0, 0x4, 0x0, 0x0, 0x0, 0x8, 0x0, 0xc, 0x0, 0x10, 0x0, 0xe, 0x0, 0x0, 0x0, 0x10, 0x0, 0x0, 0x0, 0x2, 0x0, 0x0, 0x0, 0x10, 0x0, 0x0, 0x0, 0x4c, 0x0, 0x0, 0x0, 0x1, 0x0, 0x0, 0x0, 0x4, 0x0, 0x0, 0x0, 0x39, 0x0, 0x0, 0x0, 0x73, 0x65, 0x71, 0x75, 0x65, 0x6e, 0x74, 0x69, 0x61, 0x6c, 0x5f, 0x31, 0x2f, 0x64, 0x65, 0x6e, 0x73, 0x65, 0x5f, 0x44, 0x65, 0x6e, 0x73, 0x65, 0x32, 0x2f, 0x42, 0x69, 0x61, 0x73, 0x41, 0x64, 0x64, 0x2f, 0x52, 0x65, 0x61, 0x64, 0x56, 0x61, 0x72, 0x69, 0x61, 0x62, 0x6c, 0x65, 0x4f, 0x70, 0x2f, 0x72, 0x65, 0x73, 0x6f, 0x75, 0x72, 0x63, 0x65, 0x0, 0x0, 0x0, 0x9c, 0xff, 0xff, 0xff, 0x14, 0x0, 0x18, 0x0, 0x4, 0x0, 0x0, 0x0, 0x8, 0x0, 0xc, 0x0, 0x10, 0x0, 0x0, 0x0, 0x0, 0x0, 0x14, 0x0, 0x14, 0x0, 0x0, 0x0, 0x14, 0x0, 0x0, 0x0, 0x1, 0x0, 0x0, 0x0, 0x24, 0x0, 0x0, 0x0, 0x38, 0x0, 0x0, 0x0, 0x10, 0x0, 0x0, 0x0, 0x2, 0x0, 0x0, 0x0, 0x1, 0x0, 0x0, 0x0, 0x9c, 0x0, 0x0, 0x0, 0x2, 0x0, 0x0, 0x0, 0xff, 0xff, 0xff, 0xff, 0x9c, 0x0, 0x0, 0x0, 0x12, 0x0, 0x0, 0x0, 0x64, 0x65, 0x6e, 0x73, 0x65, 0x5f, 0x44, 0x65, 0x6e, 0x73, 0x65, 0x31, 0x5f, 0x69, 0x6e, 0x70, 0x75, 0x74, 0x0, 0x0, 0xfc, 0xff, 0xff, 0xff, 0x4, 0x0, 0x4, 0x0, 0x4, 0x0, 0x0, 0x0};